{
  "version": "1.0",
  "truncation": null,
  "padding": null,
  "added_tokens": [
    {
      "id": 0,
      "content": "<|pad|>",
      "single_word": false,
      "lstrip": false,
      "rstrip": false,
      "normalized": false,
      "special": true
    },
    {
      "id": 1,
      "content": "<|bos|>",
      "single_word": false,
      "lstrip": false,
      "rstrip": false,
      "normalized": false,
      "special": true
    },
    {
      "id": 2,
      "content": "<|eos|>",
      "single_word": false,
      "lstrip": false,
      "rstrip": false,
      "normalized": false,
      "special": true
    },
    {
      "id": 3,
      "content": "<|system|>",
      "single_word": false,
      "lstrip": false,
      "rstrip": false,
      "normalized": false,
      "special": true
    },
    {
      "id": 4,
      "content": "<|user|>",
      "single_word": false,
      "lstrip": false,
      "rstrip": false,
      "normalized": false,
      "special": true
    },
    {
      "id": 5,
      "content": "<|assistant|>",
      "single_word": false,
      "lstrip": false,
      "rstrip": false,
      "normalized": false,
      "special": true
    }
  ],
  "normalizer": null,
  "pre_tokenizer": {
    "type": "ByteLevel",
    "add_prefix_space": false,
    "trim_offsets": true,
    "use_regex": true
  },
  "post_processor": null,
  "decoder": {
    "type": "ByteLevel",
    "add_prefix_space": true,
    "trim_offsets": true,
    "use_regex": true
  },
  "model": {
    "type": "BPE",
    "dropout": null,
    "unk_token": null,
    "continuing_subword_prefix": null,
    "end_of_word_suffix": null,
    "fuse_unk": false,
    "byte_fallback": false,
    "ignore_merges": false,
    "vocab": {
      "<|pad|>": 0,
      "<|bos|>": 1,
      "<|eos|>": 2,
      "<|system|>": 3,
      "<|user|>": 4,
      "<|assistant|>": 5,
      "!": 6,
      "\"": 7,
      "#": 8,
      "$": 9,
      "%": 10,
      "&": 11,
      "'": 12,
      "(": 13,
      ")": 14,
      "*": 15,
      "+": 16,
      ",": 17,
      "-": 18,
      ".": 19,
      "/": 20,
      "0": 21,
      "1": 22,
      "2": 23,
      "3": 24,
      "4": 25,
      "5": 26,
      "6": 27,
      "7": 28,
      "8": 29,
      "9": 30,
      ":": 31,
      ";": 32,
      "<": 33,
      "=": 34,
      ">": 35,
      "?": 36,
      "@": 37,
      "A": 38,
      "B": 39,
      "C": 40,
      "D": 41,
      "E": 42,
      "F": 43,
      "G": 44,
      "H": 45,
      "I": 46,
      "J": 47,
      "K": 48,
      "L": 49,
      "M": 50,
      "N": 51,
      "O": 52,
      "P": 53,
      "Q": 54,
      "R": 55,
      "S": 56,
      "T": 57,
      "U": 58,
      "V": 59,
      "W": 60,
      "X": 61,
      "Y": 62,
      "Z": 63,
      "[": 64,
      "\\": 65,
      "]": 66,
      "^": 67,
      "_": 68,
      "`": 69,
      "a": 70,
      "b": 71,
      "c": 72,
      "d": 73,
      "e": 74,
      "f": 75,
      "g": 76,
      "h": 77,
      "i": 78,
      "j": 79,
      "k": 80,
      "l": 81,
      "m": 82,
      "n": 83,
      "o": 84,
      "p": 85,
      "q": 86,
      "r": 87,
      "s": 88,
      "t": 89,
      "u": 90,
      "v": 91,
      "w": 92,
      "x": 93,
      "y": 94,
      "z": 95,
      "{": 96,
      "|": 97,
      "}": 98,
      "~": 99,
      "¡": 100,
      "¢": 101,
      "£": 102,
      "¤": 103,
      "¥": 104,
      "¦": 105,
      "§": 106,
      "¨": 107,
      "©": 108,
      "ª": 109,
      "«": 110,
      "¬": 111,
      "®": 112,
      "¯": 113,
      "°": 114,
      "±": 115,
      "²": 116,
      "³": 117,
      "´": 118,
      "µ": 119,
      "¶": 120,
      "·": 121,
      "¸": 122,
      "¹": 123,
      "º": 124,
      "»": 125,
      "¼": 126,
      "½": 127,
      "¾": 128,
      "¿": 129,
      "À": 130,
      "Á": 131,
      "Â": 132,
      "Ã": 133,
      "Ä": 134,
      "Å": 135,
      "Æ": 136,
      "Ç": 137,
      "È": 138,
      "É": 139,
      "Ê": 140,
      "Ë": 141,
      "Ì": 142,
      "Í": 143,
      "Î": 144,
      "Ï": 145,
      "Ð": 146,
      "Ñ": 147,
      "Ò": 148,
      "Ó": 149,
      "Ô": 150,
      "Õ": 151,
      "Ö": 152,
      "×": 153,
      "Ø": 154,
      "Ù": 155,
      "Ú": 156,
      "Û": 157,
      "Ü": 158,
      "Ý": 159,
      "Þ": 160,
      "ß": 161,
      "à": 162,
      "á": 163,
      "â": 164,
      "ã": 165,
      "ä": 166,
      "å": 167,
      "æ": 168,
      "ç": 169,
      "è": 170,
      "é": 171,
      "ê": 172,
      "ë": 173,
      "ì": 174,
      "í": 175,
      "î": 176,
      "ï": 177,
      "ð": 178,
      "ñ": 179,
      "ò": 180,
      "ó": 181,
      "ô": 182,
      "õ": 183,
      "ö": 184,
      "÷": 185,
      "ø": 186,
      "ù": 187,
      "ú": 188,
      "û": 189,
      "ü": 190,
      "ý": 191,
      "þ": 192,
      "ÿ": 193,
      "Ā": 194,
      "ā": 195,
      "Ă": 196,
      "ă": 197,
      "Ą": 198,
      "ą": 199,
      "Ć": 200,
      "ć": 201,
      "Ĉ": 202,
      "ĉ": 203,
      "Ċ": 204,
      "ċ": 205,
      "Č": 206,
      "č": 207,
      "Ď": 208,
      "ď": 209,
      "Đ": 210,
      "đ": 211,
      "Ē": 212,
      "ē": 213,
      "Ĕ": 214,
      "ĕ": 215,
      "Ė": 216,
      "ė": 217,
      "Ę": 218,
      "ę": 219,
      "Ě": 220,
      "ě": 221,
      "Ĝ": 222,
      "ĝ": 223,
      "Ğ": 224,
      "ğ": 225,
      "Ġ": 226,
      "ġ": 227,
      "Ģ": 228,
      "ģ": 229,
      "Ĥ": 230,
      "ĥ": 231,
      "Ħ": 232,
      "ħ": 233,
      "Ĩ": 234,
      "ĩ": 235,
      "Ī": 236,
      "ī": 237,
      "Ĭ": 238,
      "ĭ": 239,
      "Į": 240,
      "į": 241,
      "İ": 242,
      "ı": 243,
      "Ĳ": 244,
      "ĳ": 245,
      "Ĵ": 246,
      "ĵ": 247,
      "Ķ": 248,
      "ķ": 249,
      "ĸ": 250,
      "Ĺ": 251,
      "ĺ": 252,
      "Ļ": 253,
      "ļ": 254,
      "Ľ": 255,
      "ľ": 256,
      "Ŀ": 257,
      "ŀ": 258,
      "Ł": 259,
      "ł": 260,
      "Ń": 261,
      "Ġt": 262,
      "Ġa": 263,
      "he": 264,
      "in": 265,
      "re": 266,
      "Ġthe": 267,
      "Ġo": 268,
      "er": 269,
      "on": 270,
      "at": 271,
      "Ġs": 272,
      "en": 273,
      "Ġc": 274,
      "Ġw": 275,
      "es": 276,
      "is": 277,
      "nd": 278,
      "or": 279,
      "it": 280,
      "Ġp": 281,
      "ed": 282,
      "al": 283,
      "Ġof": 284,
      "Ġb": 285,
      "Ġf": 286,
      "an": 287,
      "Ġin": 288,
      "ar": 289,
      "ing": 290,
      "Ġm": 291,
      "ou": 292,
      "ic": 293,
      "Ġand": 294,
      "Ġto": 295,
      "ion": 296,
      "Ġd": 297,
      "ro": 298,
      "le": 299,
      "as": 300,
      "Ġh": 301,
      "ent": 302,
      "Ġth": 303,
      "ct": 304,
      "il": 305,
      "Ġe": 306,
      "Ġre": 307,
      "om": 308,
      "Ġn": 309,
      "Ġl": 310,
      "st": 311,
      "ve": 312,
      "ly": 313,
      "Ġbe": 314,
      "ĠT": 315,
      "Ġis": 316,
      "ol": 317,
      "ation": 318,
      "se": 319,
      "Ġg": 320,
      "id": 321,
      "im": 322,
      "ce": 323,
      "ĠA": 324,
      "ut": 325,
      "et": 326,
      "ot": 327,
      "ur": 328,
      "ra": 329,
      "ch": 330,
      "ĠS": 331,
      "Ġfor": 332,
      "ow": 333,
      "ig": 334,
      "ĠC": 335,
      "âĢ": 336,
      "Ġthat": 337,
      "Ġon": 338,
      "Ġu": 339,
      "ver": 340,
      "ĠI": 341,
      "ir": 342,
      "Ġst": 343,
      "am": 344,
      "ul": 345,
      "ay": 346,
      "ad": 347,
      "el": 348,
      "Ġas": 349,
      "ith": 350,
      "her": 351,
      "Ġpro": 352,
      "Ġcon": 353,
      "ĠM": 354,
      "Ġy": 355,
      "Ġ1": 356,
      "Ġan": 357,
      "Ġwith": 358,
      "Ġ(": 359,
      "Ġwh": 360,
      "Ġor": 361,
      "Ġare": 362,
      "ter": 363,
      "if": 364,
      "Ġit": 365,
      "ĠP": 366,
      "ĠThe": 367,
      "Ġal": 368,
      "ment": 369,
      "od": 370,
      "ist": 371,
      "th": 372,
      "ers": 373,
      "ge": 374,
      "op": 375,
      "ate": 376,
      "Ġde": 377,
      "ĠB": 378,
      "ies": 379,
      "ill": 380,
      "ere": 381,
      "us": 382,
      "um": 383,
      "ab": 384,
      "Ġex": 385,
      "ĠH": 386,
      "res": 387,
      "Ġcom": 388,
      "Ġby": 389,
      "Ġhe": 390,
      "ect": 391,
      "ity": 392,
      "est": 393,
      "ess": 394,
      "rom": 395,
      "ore": 396,
      "os": 397,
      "ri": 398,
      "Ġyou": 399,
      "ld": 400,
      "Ġsu": 401,
      "em": 402,
      "Ġha": 403,
      "Ġat": 404,
      "Ġwas": 405,
      "ac": 406,
      "ĠW": 407,
      "ive": 408,
      "nt": 409,
      "Ġv": 410,
      "ĠD": 411,
      "qu": 412,
      "pp": 413,
      "ain": 414,
      "ĠR": 415,
      "ĠE": 416,
      "igh": 417,
      "ant": 418,
      "ud": 419,
      "Ġfrom": 420,
      "ke": 421,
      "ĠF": 422,
      "and": 423,
      "Ġ2": 424,
      "oc": 425,
      "iv": 426,
      "ĠN": 427,
      "Ġse": 428,
      "Ġne": 429,
      "ort": 430,
      "Ġch": 431,
      "Ġr": 432,
      "un": 433,
      "ĠG": 434,
      "ure": 435,
      "Ġnot": 436,
      "00": 437,
      "ical": 438,
      "art": 439,
      "ĠL": 440,
      "ial": 441,
      "Ġcan": 442,
      "og": 443,
      "Ġhave": 444,
      "Ġle": 445,
      "Ġsp": 446,
      "Ġsh": 447,
      "Ġen": 448,
      "ight": 449,
      "ich": 450,
      "all": 451,
      "pt": 452,
      "The": 453,
      "âĢĻ": 454,
      "Ġthis": 455,
      "'s": 456,
      "rou": 457,
      "Ġab": 458,
      "ould": 459,
      "ther": 460,
      "gh": 461,
      "ost": 462,
      "our": 463,
      "ions": 464,
      "Ġwor": 465,
      "ated": 466,
      "ard": 467,
      "ust": 468,
      "ear": 469,
      "ome": 470,
      "ĠJ": 471,
      "ine": 472,
      "ia": 473,
      "ell": 474,
      "ĠO": 475,
      "out": 476,
      "per": 477,
      "ĠâĢ": 478,
      "ĠU": 479,
      "Ġwe": 480,
      "ans": 481,
      "ast": 482,
      "Ġus": 483,
      "ff": 484,
      "Ġtheir": 485,
      "Ġint": 486,
      "ec": 487,
      "act": 488,
      "Ġim": 489,
      "Ġwhich": 490,
      "pl": 491,
      "ĠIn": 492,
      "Ġpl": 493,
      "du": 494,
      "Ġ\"": 495,
      "ide": 496,
      "ag": 497,
      "ew": 498,
      "Ġk": 499,
      "ous": 500,
      "age": 501,
      "are": 502,
      "Ġcont": 503,
      "iz": 504,
      "ak": 505,
      "Ġdis": 506,
      "ib": 507,
      "Ġall": 508,
      "Ġwhe": 509,
      "Ġ19": 510,
      "end": 511,
      "Ġad": 512,
      "cc": 513,
      "Ġthey": 514,
      "ary": 515,
      "ong": 516,
      "ap": 517,
      "ru": 518,
      "orm": 519,
      "ations": 520,
      "Ġwere": 521,
      "vel": 522,
      "ater": 523,
      "Ġmore": 524,
      "Ġhas": 525,
      "Ġinc": 526,
      "ult": 527,
      "Ġcomp": 528,
      "ood": 529,
      "ip": 530,
      "Ġres": 531,
      "Ġwill": 532,
      "ire": 533,
      "Ġother": 534,
      "Ġbut": 535,
      "Ġdo": 536,
      "Ġper": 537,
      "ence": 538,
      "ual": 539,
      "Ġcl": 540,
      "so": 541,
      "ry": 542,
      "ild": 543,
      "ĠTh": 544,
      "ep": 545,
      "Ġone": 546,
      "Ġman": 547,
      "ks": 548,
      "able": 549,
      "ose": 550,
      "Ġar": 551,
      "ign": 552,
      "ance": 553,
      "ind": 554,
      "Ġj": 555,
      "Ġme": 556,
      "âĢĿ": 557,
      "ace": 558,
      "ress": 559,
      "ass": 560,
      "Ġhis": 561,
      "ice": 562,
      "ber": 563,
      "ents": 564,
      "ord": 565,
      "ach": 566,
      "ction": 567,
      "Ġun": 568,
      "ame": 569,
      "reat": 570,
      ").": 571,
      "ase": 572,
      "Ġpart": 573,
      "ĠSt": 574,
      "av": 575,
      "ory": 576,
      "ount": 577,
      "Ġapp": 578,
      "Ġte": 579,
      "Ġalso": 580,
      "Ġwho": 581,
      "ĠK": 582,
      "au": 583,
      "Ġev": 584,
      "Ġcomm": 585,
      "Ġyour": 586,
      "olog": 587,
      "ub": 588,
      "ake": 589,
      "ish": 590,
      "Ġimp": 591,
      "ition": 592,
      "Ġpre": 593,
      "Ġout": 594,
      "Ġso": 595,
      "ci": 596,
      "ack": 597,
      "ime": 598,
      "Ġabout": 599,
      "ens": 600,
      "Ġinf": 601,
      "one": 602,
      "ok": 603,
      "ite": 604,
      "very": 605,
      "ound": 606,
      "ors": 607,
      "Ġstud": 608,
      "ree": 609,
      "ian": 610,
      "mer": 611,
      "ces": 612,
      "Ġyear": 613,
      "Ġsy": 614,
      "ĠâĢľ": 615,
      "ĠCh": 616,
      "Ġmay": 617,
      "Ġthan": 618,
      "Ġup": 619,
      "ĠV": 620,
      "ue": 621,
      "Ġpe": 622,
      "Ġbeen": 623,
      "ile": 624,
      "ates": 625,
      "Ġits": 626,
      "ang": 627,
      "ric": 628,
      "Ġrec": 629,
      "Ġthem": 630,
      "Ġhad": 631,
      "own": 632,
      "Ġsome": 633,
      "Ġag": 634,
      "ie": 635,
      "Ġbec": 636,
      "vers": 637,
      "Ġgo": 638,
      "low": 639,
      "ail": 640,
      "Ġqu": 641,
      "Ġthere": 642,
      "ĠIt": 643,
      "nder": 644,
      "ays": 645,
      "ons": 646,
      "ike": 647,
      "ph": 648,
      "ough": 649,
      "Ġinto": 650,
      "erv": 651,
      "tern": 652,
      "rit": 653,
      "Ġtra": 654,
      "ond": 655,
      "Ġ3": 656,
      "ople": 657,
      "Ġtw": 658,
      "Ġkn": 659,
      "Ġ200": 660,
      "iff": 661,
      "te": 662,
      "rough": 663,
      "lic": 664,
      "ms": 665,
      "ings": 666,
      "ren": 667,
      "ational": 668,
      "irst": 669,
      "lud": 670,
      "Ġra": 671,
      "Ġwhen": 672,
      "Ġsa": 673,
      "Ġrep": 674,
      "Ġnew": 675,
      "Ġwould": 676,
      "Ġthese": 677,
      "ject": 678,
      "lect": 679,
      "ove": 680,
      "Ġover": 681,
      "Ġgen": 682,
      "Ġind": 683,
      "ob": 684,
      "Ġwork": 685,
      "int": 686,
      "ally": 687,
      "Ġtime": 688,
      "Ġcons": 689,
      "Ġcol": 690,
      "Ġdes": 691,
      "Ġ-": 692,
      "Ġact": 693,
      "Ġbl": 694,
      "ific": 695,
      "hed": 696,
      "Ġunder": 697,
      "ll": 698,
      "Ġmost": 699,
      "Ġro": 700,
      "wn": 701,
      "ments": 702,
      "stem": 703,
      "ys": 704,
      "ities": 705,
      "ĠThis": 706,
      "velop": 707,
      "red": 708,
      "Ġuse": 709,
      "Ġbet": 710,
      "we": 711,
      "Ġpeople": 712,
      "ĠUn": 713,
      "Ġrel": 714,
      "ause": 715,
      "),": 716,
      "Ġsuch": 717,
      "Ġacc": 718,
      "ook": 719,
      "Ġ20": 720,
      "ĠY": 721,
      "iss": 722,
      "Ġhow": 723,
      "Ġdiff": 724,
      "Ġno": 725,
      "ative": 726,
      "Ġprov": 727,
      "Ġif": 728,
      "Ġfirst": 729,
      "Ġany": 730,
      "Ġinclud": 731,
      "Ġoff": 732,
      "Ġtr": 733,
      "ced": 734,
      "les": 735,
      "ning": 736,
      "ov": 737,
      "Ġonly": 738,
      "Ġtwo": 739,
      "ple": 740,
      "Ġspec": 741,
      "Ġeff": 742,
      "ious": 743,
      "Ġph": 744,
      "Ġchild": 745,
      "ular": 746,
      "Ġlike": 747,
      "erm": 748,
      "Ġam": 749,
      "rib": 750,
      "Ġour": 751,
      "Ġused": 752,
      "ied": 753,
      "Ġpo": 754,
      "ts": 755,
      "alth": 756,
      "Ġreg": 757,
      "fter": 758,
      "Ġdevelop": 759,
      "oss": 760,
      "Ġprodu": 761,
      "Ġexp": 762,
      "Ġmany": 763,
      "ĠHe": 764,
      "Ġsur": 765,
      "Ġthrough": 766,
      "uc": 767,
      "Ġob": 768,
      "Ġneed": 769,
      "cess": 770,
      "Ġatt": 771,
      "ool": 772,
      "uring": 773,
      "Ġem": 774,
      "Ġsystem": 775,
      "ating": 776,
      "ics": 777,
      "Ġac": 778,
      "aw": 779,
      "arch": 780,
      "Ġwhat": 781,
      "Ġsc": 782,
      "ath": 783,
      "iet": 784,
      "ower": 785,
      "als": 786,
      "yp": 787,
      "hen": 788,
      "round": 789,
      "Ġyears": 790,
      "ise": 791,
      "rop": 792,
      "ne": 793,
      "ert": 794,
      "Ġ4": 795,
      "ark": 796,
      "ink": 797,
      "oth": 798,
      "old": 799,
      "ution": 800,
      "Ġdec": 801,
      "Ġass": 802,
      "ited": 803,
      "sel": 804,
      "ten": 805,
      "ram": 806,
      "ife": 807,
      "meric": 808,
      "Ġsub": 809,
      "ased": 810,
      "ade": 811,
      "ible": 812,
      "ility": 813,
      "Ġadd": 814,
      "Ġwater": 815,
      "Ġpr": 816,
      "ology": 817,
      "ful": 818,
      "ists": 819,
      "cy": 820,
      "row": 821,
      "..": 822,
      "ange": 823,
      "gan": 824,
      "Ġ18": 825,
      "Ġinv": 826,
      "In": 827,
      "Ġsupp": 828,
      "Ġpol": 829,
      "ween": 830,
      "Ġinter": 831,
      "Ġfe": 832,
      "lp": 833,
      "ures": 834,
      "fore": 835,
      "Ġshould": 836,
      "ered": 837,
      "Ġco": 838,
      "Ġcould": 839,
      "Ġfl": 840,
      "ident": 841,
      "ble": 842,
      "Ġ5": 843,
      "Ġpres": 844,
      "Ġrem": 845,
      "ick": 846,
      "ĠAs": 847,
      "ormation": 848,
      "ng": 849,
      "eth": 850,
      "uch": 851,
      "Ġhelp": 852,
      "Ġrese": 853,
      "Ġbetween": 854,
      "ft": 855,
      "Ġwhere": 856,
      "vern": 857,
      "hes": 858,
      "ily": 859,
      "chn": 860,
      "ivers": 861,
      "Ġdiffere": 862,
      "ĠAmeric": 863,
      "ract": 864,
      "Ġcount": 865,
      "its": 866,
      "Ġear": 867,
      "ism": 868,
      "Ġcent": 869,
      "Ġnum": 870,
      "Ġsaid": 871,
      "Ġwell": 872,
      "ins": 873,
      "ex": 874,
      "ever": 875,
      "Ġtrans": 876,
      "Ġsm": 877,
      "Ġform": 878,
      "ont": 879,
      "ict": 880,
      "gy": 881,
      "Ġfound": 882,
      ".\"": 883,
      "ural": 884,
      "land": 885,
      "Ġ201": 886,
      "Ġlar": 887,
      "Ġmod": 888,
      "ants": 889,
      "Ġmed": 890,
      "Ġhum": 891,
      "urn": 892,
      "Ġpers": 893,
      "chool": 894,
      "Ġcall": 895,
      "Ġref": 896,
      "Ġexam": 897,
      "Ġhigh": 898,
      "itt": 899,
      "Ġpub": 900,
      "ved": 901,
      "omm": 902,
      "ually": 903,
      "ature": 904,
      "Ġafter": 905,
      "Ġlong": 906,
      "ef": 907,
      "oy": 908,
      "Ġdet": 909,
      "Ġjust": 910,
      "Ġinst": 911,
      "Ġthose": 912,
      "ines": 913,
      "cept": 914,
      "cer": 915,
      "Ġed": 916,
      "ĠPro": 917,
      "other": 918,
      "Ġmake": 919,
      "Ġbu": 920,
      "Ġher": 921,
      "cent": 922,
      "eral": 923,
      "Ġdef": 924,
      "Ġworld": 925,
      "Ġright": 926,
      "Ġeven": 927,
      "Ġloc": 928,
      "vent": 929,
      "ases": 930,
      "Ġext": 931,
      "iew": 932,
      "Ġthen": 933,
      "Ġeffect": 934,
      "roup": 935,
      "Ġsign": 936,
      "Ġdist": 937,
      "ically": 938,
      "Ġknow": 939,
      "Ġdisc": 940,
      "Ġinformation": 941,
      "Th": 942,
      "ork": 943,
      "Ġimport": 944,
      "19": 945,
      "Ġprog": 946,
      "Ġget": 947,
      "ds": 948,
      "Ġbecause": 949,
      "ĠAl": 950,
      "Ġhealth": 951,
      "Ġvery": 952,
      "Ġway": 953,
      "led": 954,
      "Ġsee": 955,
      "ollow": 956,
      "ward": 957,
      "Ġsim": 958,
      "||": 959,
      "Ġcar": 960,
      "Ġpat": 961,
      "Ġbeing": 962,
      "ives": 963,
      "Ġincre": 964,
      "Ġsci": 965,
      "ck": 966,
      "Ġsame": 967,
      "Ġresp": 968,
      "Ġcommun": 969,
      "imes": 970,
      "Ġsec": 971,
      "Ġca": 972,
      "io": 973,
      "Ġpartic": 974,
      "Ġcell": 975,
      "Ġfact": 976,
      "ues": 977,
      "Ġexper": 978,
      "iron": 979,
      "ĠWh": 980,
      "aking": 981,
      "Ġtechn": 982,
      "ran": 983,
      "ruct": 984,
      "get": 985,
      "Ġmade": 986,
      "Ġmon": 987,
      "Ġduring": 988,
      "Ġ6": 989,
      "Ġfam": 990,
      "Ġmuch": 991,
      "ather": 992,
      "the": 993,
      "arm": 994,
      "con": 995,
      "iversity": 996,
      "ness": 997,
      "xt": 998,
      "ized": 999,
      "Ġgra": 1000,
      "Ġchildren": 1001,
      "ĠNew": 1002,
      "Ġaut": 1003,
      "Ġstate": 1004,
      "ĠFor": 1005,
      "ata": 1006,
      "Ġdifferent": 1007,
      "Ġown": 1008,
      "Ġevery": 1009,
      "Ġgovern": 1010,
      "Ġagain": 1011,
      "Ġeach": 1012,
      "Ġart": 1013,
      "Ġke": 1014,
      "ros": 1015,
      "gg": 1016,
      "Ġset": 1017,
      "orn": 1018,
      "Ġmem": 1019,
      "und": 1020,
      "Ġrequ": 1021,
      "Ġent": 1022,
      "any": 1023,
      "ages": 1024,
      "Ġvar": 1025,
      "ince": 1026,
      "ĠAn": 1027,
      "Ġresult": 1028,
      "ection": 1029,
      "Ġtyp": 1030,
      "ĠAr": 1031,
      "Ġend": 1032,
      "Ġpop": 1033,
      "Ġmy": 1034,
      "Ġdep": 1035,
      "ĠâĢĵ": 1036,
      "ars": 1037,
      "hem": 1038,
      "000": 1039,
      "ven": 1040,
      "Ġfollow": 1041,
      "Ġshe": 1042,
      "Ġback": 1043,
      "Ġgroup": 1044,
      "irect": 1045,
      "ty": 1046,
      "Ġstudy": 1047,
      "form": 1048,
      "ined": 1049,
      "Ġsoc": 1050,
      "Ġcre": 1051,
      "omen": 1052,
      "Ġlife": 1053,
      "ĠThey": 1054,
      "eg": 1055,
      "Ġprocess": 1056,
      "ĠWe": 1057,
      "ury": 1058,
      "Ġcur": 1059,
      "Ġlear": 1060,
      "ished": 1061,
      "'t": 1062,
      "Ġhim": 1063,
      "Ġshow": 1064,
      "oh": 1065,
      "viron": 1066,
      "Ġlevel": 1067,
      "Ġnow": 1068,
      "ize": 1069,
      "Ġtest": 1070,
      "ah": 1071,
      "ute": 1072,
      "ody": 1073,
      "Ġdoes": 1074,
      ",\"": 1075,
      "Ġmin": 1076,
      "Ġ199": 1077,
      "ale": 1078,
      "hip": 1079,
      "Ġhist": 1080,
      "Ġcomple": 1081,
      ".âĢĿ": 1082,
      "Ġpower": 1083,
      "rol": 1084,
      "Ġins": 1085,
      "Ġboth": 1086,
      "ĠInd": 1087,
      "ergy": 1088,
      "ax": 1089,
      "Ġlead": 1090,
      ".,": 1091,
      "ting": 1092,
      "ron": 1093,
      "inal": 1094,
      "Ġocc": 1095,
      "Ġtreat": 1096,
      "Ġfind": 1097,
      "Ġschool": 1098,
      "ient": 1099,
      "ix": 1100,
      "Ġread": 1101,
      "ral": 1102,
      "Ġbefore": 1103,
      "Ġsmall": 1104,
      "Ġ7": 1105,
      "Ġproble": 1106,
      "iel": 1107,
      "Ġsk": 1108,
      "Ġimportant": 1109,
      "Ġbo": 1110,
      "Ġav": 1111,
      "ee": 1112,
      "nce": 1113,
      "Ġperson": 1114,
      "read": 1115,
      "Ġprovid": 1116,
      "ĠSp": 1117,
      "Ġthree": 1118,
      "ĠIf": 1119,
      "ices": 1120,
      "Ġstr": 1121,
      "Ġreport": 1122,
      "Ġgood": 1123,
      "Ġdid": 1124,
      "Ġstudents": 1125,
      "Ġdise": 1126,
      "ially": 1127,
      "Ġ10": 1128,
      "Ġser": 1129,
      "vironment": 1130,
      "imate": 1131,
      "Ġexpl": 1132,
      "Ġnumber": 1133,
      "ĠIs": 1134,
      "hers": 1135,
      "ving": 1136,
      "cl": 1137,
      "Ġprot": 1138,
      "Ġresearch": 1139,
      "Ġelect": 1140,
      "Ġdown": 1141,
      "ves": 1142,
      "Ġoften": 1143,
      "der": 1144,
      "Ġorgan": 1145,
      "Ġland": 1146,
      "Ġposs": 1147,
      "stit": 1148,
      "Ġgl": 1149,
      "up": 1150,
      "ters": 1151,
      "ected": 1152,
      "ination": 1153,
      "Ġless": 1154,
      "Ġhuman": 1155,
      "Ġbel": 1156,
      "ĠBut": 1157,
      "Ġest": 1158,
      "ital": 1159,
      "Ġusing": 1160,
      "air": 1161,
      "Ġcontin": 1162,
      "ulation": 1163,
      "âĢĶ": 1164,
      "Ġlarge": 1165,
      "ivid": 1166,
      "aj": 1167,
      "ared": 1168,
      "Ġvis": 1169,
      "Ġcour": 1170,
      "ave": 1171,
      "self": 1172,
      "rent": 1173,
      "Ġcalled": 1174,
      "ier": 1175,
      "ĠHow": 1176,
      "orth": 1177,
      "lear": 1178,
      "Ġpublic": 1179,
      "Ġmust": 1180,
      "Ġexample": 1181,
      "Ġwhile": 1182,
      "Ġdata": 1183,
      "bers": 1184,
      "Ġgovernment": 1185,
      "Ġserv": 1186,
      "ains": 1187,
      "Ġ8": 1188,
      "Ġday": 1189,
      "ring": 1190,
      "ull": 1191,
      "ior": 1192,
      "stand": 1193,
      "Ġret": 1194,
      "gen": 1195,
      "Ġmain": 1196,
      "oun": 1197,
      "Ġplan": 1198,
      "Ġmet": 1199,
      "ock": 1200,
      "Ġsol": 1201,
      "Ġchar": 1202,
      "Ġgreat": 1203,
      "Ġfood": 1204,
      "Ġlaw": 1205,
      "Ġfun": 1206,
      "Ġhand": 1207,
      "Ġris": 1208,
      "Ġactiv": 1209,
      "Ġdesign": 1210,
      "outh": 1211,
      "Ġcommon": 1212,
      "day": 1213,
      "Ġtake": 1214,
      "uss": 1215,
      "Ġpoint": 1216,
      "osed": 1217,
      "Ġconf": 1218,
      "ĠUniversity": 1219,
      "ton": 1220,
      "dition": 1221,
      "ĠRe": 1222,
      "ĠAmerican": 1223,
      "Ġ9": 1224,
      "ash": 1225,
      "Ġgrow": 1226,
      "ians": 1227,
      "Ġincluding": 1228,
      "conom": 1229,
      "Ġgener": 1230,
      "Ġclass": 1231,
      "Ġsupport": 1232,
      "iqu": 1233,
      "Ġop": 1234,
      "ality": 1235,
      "Ġaround": 1236,
      "Ġthough": 1237,
      "Ġval": 1238,
      "Ġconsid": 1239,
      "ĠAnd": 1240,
      "com": 1241,
      "reen": 1242,
      "ĠDe": 1243,
      "Ġwrit": 1244,
      "iety": 1245,
      "itions": 1246,
      "ouse": 1247,
      "akes": 1248,
      "iver": 1249,
      "Ġredu": 1250,
      "Ġaff": 1251,
      "Ġlook": 1252,
      "This": 1253,
      "Ġdirect": 1254,
      "way": 1255,
      "amp": 1256,
      "ger": 1257,
      "Ġbody": 1258,
      "Ġallow": 1259,
      "Ġadv": 1260,
      "ĠCon": 1261,
      "ross": 1262,
      "ission": 1263,
      "Ġsom": 1264,
      "erest": 1265,
      "oci": 1266,
      "Ġcor": 1267,
      "man": 1268,
      "to": 1269,
      "Ġstand": 1270,
      "acter": 1271,
      "Ġequ": 1272,
      "10": 1273,
      "Ġknown": 1274,
      "illion": 1275,
      "Wh": 1276,
      "ted": 1277,
      "Ġstill": 1278,
      "ium": 1279,
      "de": 1280,
      "ris": 1281,
      "Ġmat": 1282,
      "ense": 1283,
      "ional": 1284,
      "ources": 1285,
      "20": 1286,
      "Ġplace": 1287,
      "Ġpercent": 1288,
      "esp": 1289,
      "ired": 1290,
      "Ġwithout": 1291,
      "Ġagainst": 1292,
      "Ġdesc": 1293,
      "ries": 1294,
      "aterial": 1295,
      "Ġenergy": 1296,
      "raph": 1297,
      "Ġstart": 1298,
      "ĠSe": 1299,
      "Ġeduc": 1300,
      "Ġcap": 1301,
      "iod": 1302,
      "Ġfew": 1303,
      "Ġsl": 1304,
      "Ġmight": 1305,
      "Ġanother": 1306,
      "Ġappro": 1307,
      "Ġquest": 1308,
      "Ġphys": 1309,
      "Ġtem": 1310,
      "iving": 1311,
      "Ġenvironment": 1312,
      "ĠComm": 1313,
      "oid": 1314,
      "Ġdem": 1315,
      "Ġleg": 1316,
      "ization": 1317,
      "ner": 1318,
      "ording": 1319,
      "Ġgu": 1320,
      "Ġbeh": 1321,
      "Ġiss": 1322,
      "Ġchang": 1323,
      "Ġcare": 1324,
      "Ġthink": 1325,
      "ration": 1326,
      "ining": 1327,
      "ug": 1328,
      "els": 1329,
      "ertain": 1330,
      "Ġ'": 1331,
      "ajor": 1332,
      "ĠCol": 1333,
      "ĠUnited": 1334,
      "rist": 1335,
      ",âĢĿ": 1336,
      "Ġcontrol": 1337,
      "lished": 1338,
      "Ġsays": 1339,
      "Ġdevelopment": 1340,
      "Ġscient": 1341,
      "Ġdisease": 1342,
      "Ġarea": 1343,
      "Ġair": 1344,
      "use": 1345,
      "ĠPh": 1346,
      "Ġchange": 1347,
      "Ġide": 1348,
      "ret": 1349,
      "Ġwomen": 1350,
      "iven": 1351,
      "atural": 1352,
      "ified": 1353,
      "Ġmar": 1354,
      "Ġeconom": 1355,
      "itive": 1356,
      "Ġpresent": 1357,
      "gin": 1358,
      "Ġinterest": 1359,
      "Ġpract": 1360,
      "Ġmil": 1361,
      "âĢĵ": 1362,
      "ained": 1363,
      "ccess": 1364,
      "arent": 1365,
      "lish": 1366,
      "ern": 1367,
      "ason": 1368,
      "att": 1369,
      "az": 1370,
      "Ġwithin": 1371,
      "ological": 1372,
      "ĠAt": 1373,
      "ĠThere": 1374,
      "ote": 1375,
      "here": 1376,
      "Ġwar": 1377,
      "less": 1378,
      "hor": 1379,
      "ption": 1380,
      "Ġcaus": 1381,
      "ien": 1382,
      "Ġproduct": 1383,
      "rodu": 1384,
      "ĠThese": 1385,
      "Ġmaterial": 1386,
      "Ġant": 1387,
      "Ġnear": 1388,
      "Ġbelie": 1389,
      "ived": 1390,
      "me": 1391,
      "Ġ&": 1392,
      "Ġbuild": 1393,
      "ats": 1394,
      "Ġ15": 1395,
      "Ġbro": 1396,
      "Ġpass": 1397,
      "Ġproject": 1398,
      "Ġbas": 1399,
      "ividual": 1400,
      "âĢľ": 1401,
      "Ġcells": 1402,
      "ering": 1403,
      "Ġunderstand": 1404,
      "Ġspecies": 1405,
      "bs": 1406,
      "line": 1407,
      "med": 1408,
      "ield": 1409,
      "arc": 1410,
      "Ġearly": 1411,
      "Ġoper": 1412,
      "Ġrest": 1413,
      "ina": 1414,
      "ential": 1415,
      "sp": 1416,
      "Ġblood": 1417,
      "erc": 1418,
      "Ġpar": 1419,
      "Ġsever": 1420,
      "ĠStates": 1421,
      "ator": 1422,
      "Ġinclude": 1423,
      "Ġprogram": 1424,
      "ets": 1425,
      "Ġident": 1426,
      "Ġeas": 1427,
      "ĠAd": 1428,
      "ĠCan": 1429,
      "Ġve": 1430,
      "Ġsay": 1431,
      "ently": 1432,
      "ned": 1433,
      "ames": 1434,
      "of": 1435,
      "Ġbre": 1436,
      "Ġsocial": 1437,
      "Ġoccur": 1438,
      "oms": 1439,
      "Ġ[": 1440,
      "ĠNational": 1441,
      "Ġlast": 1442,
      "ograph": 1443,
      "Ġmajor": 1444,
      "ĠEng": 1445,
      "ĠRes": 1446,
      "Ġeng": 1447,
      "Ġobject": 1448,
      "Ġpolit": 1449,
      "Ġparticular": 1450,
      "eng": 1451,
      "ethod": 1452,
      "Ġfamily": 1453,
      "osp": 1454,
      "rap": 1455,
      "Ġpur": 1456,
      "Ġsecond": 1457,
      "Ġcurrent": 1458,
      "Ġlow": 1459,
      "rain": 1460,
      "Ġtri": 1461,
      "Ġlight": 1462,
      "ww": 1463,
      "Ġprof": 1464,
      "Ġlim": 1465,
      "Ġanim": 1466,
      "atic": 1467,
      "sy": 1468,
      "ank": 1469,
      "ability": 1470,
      "Ġorig": 1471,
      "ĠGod": 1472,
      "Ġopp": 1473,
      "angu": 1474,
      "Ġmeas": 1475,
      "Ġinvol": 1476,
      "Ġold": 1477,
      "Ġmove": 1478,
      "Ġele": 1479,
      "Ġindividual": 1480,
      "ource": 1481,
      "ittle": 1482,
      "Ġwant": 1483,
      "Ġunt": 1484,
      "cing": 1485,
      "ĠCl": 1486,
      "Ġprop": 1487,
      "Ġpos": 1488,
      "Ġdev": 1489,
      "ĠSh": 1490,
      "It": 1491,
      "Ġpress": 1492,
      "ards": 1493,
      "Ġprovide": 1494,
      "though": 1495,
      "...": 1496,
      "Ġet": 1497,
      "Ġlocal": 1498,
      "Ġseveral": 1499,
      "Ġcountry": 1500,
      "gn": 1501,
      "Ġhistory": 1502,
      "ĠZ": 1503,
      "Ġavail": 1504,
      "ention": 1505,
      "Ġbir": 1506,
      "Ġconst": 1507,
      "12": 1508,
      "ision": 1509,
      "ik": 1510,
      "Ġhome": 1511,
      "ĠEn": 1512,
      "ead": 1513,
      "Ġname": 1514,
      "Ġlater": 1515,
      "ĠYou": 1516,
      "Ġorder": 1517,
      "resent": 1518,
      "inc": 1519,
      "Ġfore": 1520,
      "ĠCent": 1521,
      "Ġbecome": 1522,
      "Ġtreatment": 1523,
      "Ġter": 1524,
      "Ġcult": 1525,
      "Ġdon": 1526,
      "ids": 1527,
      "Ġsit": 1528,
      "Ġproper": 1529,
      "view": 1530,
      "Ġfour": 1531,
      "Ġpot": 1532,
      "alk": 1533,
      "omp": 1534,
      "Ġmen": 1535,
      "ify": 1536,
      "eed": 1537,
      "idence": 1538,
      "ternational": 1539,
      "Ġben": 1540,
      "Ġaddition": 1541,
      "Ġsince": 1542,
      "ended": 1543,
      "abor": 1544,
      "Ġprom": 1545,
      "ories": 1546,
      "Ġopen": 1547,
      "ients": 1548,
      "Ġhere": 1549,
      "Ġpost": 1550,
      "18": 1551,
      "Ġmark": 1552,
      "Ġ17": 1553,
      "Ġtop": 1554,
      "olution": 1555,
      "Ġperform": 1556,
      "Ġrisk": 1557,
      "ged": 1558,
      "Ġbi": 1559,
      "ĠWhen": 1560,
      "Ġfre": 1561,
      "Ġtre": 1562,
      "ĠEx": 1563,
      "ĠHowever": 1564,
      "ware": 1565,
      "Ġfar": 1566,
      "Ġmus": 1567,
      "Ġpri": 1568,
      "Ġview": 1569,
      "Ġtoo": 1570,
      "Ġareas": 1571,
      "ohn": 1572,
      "Ġel": 1573,
      "Ġamong": 1574,
      "face": 1575,
      "Ġmeans": 1576,
      "Ġpossible": 1577,
      "Ġtimes": 1578,
      "Ġfin": 1579,
      "Ġlo": 1580,
      "ĠChrist": 1581,
      "urop": 1582,
      "Ġdeterm": 1583,
      "ples": 1584,
      "Ġsuccess": 1585,
      "par": 1586,
      "Ġmethod": 1587,
      "let": 1588,
      "une": 1589,
      "Ġcertain": 1590,
      "Ġsym": 1591,
      "iter": 1592,
      "ably": 1593,
      "Ġimpro": 1594,
      "ĠQ": 1595,
      "ĠMed": 1596,
      "Ġperiod": 1597,
      "Ġrun": 1598,
      "ek": 1599,
      "Ġavailable": 1600,
      "Ġfollowing": 1601,
      "ploy": 1602,
      "lu": 1603,
      "Ġbest": 1604,
      "Ġnon": 1605,
      "Ġbetter": 1606,
      "Ġ198": 1607,
      "irc": 1608,
      "Ġplay": 1609,
      "Ġanal": 1610,
      "Ġche": 1611,
      "ither": 1612,
      "Ġhig": 1613,
      "ĠâĢĶ": 1614,
      "ley": 1615,
      "Ġrece": 1616,
      "tt": 1617,
      "ĠPl": 1618,
      "Ġfree": 1619,
      "Ġreal": 1620,
      "Ġ12": 1621,
      "Ġstruct": 1622,
      "Ġsaf": 1623,
      "Ġdel": 1624,
      "ĠSci": 1625,
      "Ġput": 1626,
      "ways": 1627,
      "ĠOn": 1628,
      "Ġkeep": 1629,
      "11": 1630,
      "Ġable": 1631,
      "Ġcost": 1632,
      "ental": 1633,
      "iness": 1634,
      "ude": 1635,
      "Ġcentury": 1636,
      "Ġothers": 1637,
      "Ġrad": 1638,
      "ym": 1639,
      "Ġpain": 1640,
      "oint": 1641,
      "ience": 1642,
      "icle": 1643,
      "ĠAf": 1644,
      "urope": 1645,
      "Ġaccess": 1646,
      "Ġobs": 1647,
      "Ġfac": 1648,
      "etic": 1649,
      "Ġbased": 1650,
      "urther": 1651,
      "Ġcond": 1652,
      "ĠTo": 1653,
      "unt": 1654,
      "Ġcase": 1655,
      "Ġnatural": 1656,
      "Ġmonth": 1657,
      "Ġgiven": 1658,
      "ggest": 1659,
      "atory": 1660,
      "oks": 1661,
      "por": 1662,
      "sw": 1663,
      "ĠEar": 1664,
      "ised": 1665,
      "Ġlist": 1666,
      "Ġcause": 1667,
      "ilar": 1668,
      "200": 1669,
      "rid": 1670,
      "Ġmean": 1671,
      "ills": 1672,
      "ole": 1673,
      "ends": 1674,
      "Ġsignific": 1675,
      "Ġseem": 1676,
      "Ġuntil": 1677,
      "Ġcancer": 1678,
      "Ġlittle": 1679,
      "Ġcomput": 1680,
      "Ġhead": 1681,
      "Ġrecord": 1682,
      "Ġlangu": 1683,
      "Ġ$": 1684,
      "eb": 1685,
      "Ġhapp": 1686,
      "alf": 1687,
      "work": 1688,
      "Ġappear": 1689,
      "Ġauthor": 1690,
      "ler": 1691,
      "ored": 1692,
      "obal": 1693,
      "aken": 1694,
      "Ġproblems": 1695,
      "15": 1696,
      "pr": 1697,
      "Ġspace": 1698,
      "Ġbook": 1699,
      "Ġmillion": 1700,
      "over": 1701,
      "Ġ.": 1702,
      "Ġur": 1703,
      "Ġthings": 1704,
      "Ġprevent": 1705,
      "ling": 1706,
      "ured": 1707,
      "ĠUS": 1708,
      "Ġclear": 1709,
      "Ġsuggest": 1710,
      "be": 1711,
      "not": 1712,
      "Ġ16": 1713,
      "Ġshort": 1714,
      "aim": 1715,
      "mber": 1716,
      "isc": 1717,
      "Ġturn": 1718,
      "ately": 1719,
      "ĠOr": 1720,
      "ething": 1721,
      "idd": 1722,
      "\".": 1723,
      "ĠWar": 1724,
      "Ġplant": 1725,
      "Ġrele": 1726,
      "Ġsing": 1727,
      "Ġcomb": 1728,
      "Ġdeath": 1729,
      "pect": 1730,
      "orld": 1731,
      "Ġlet": 1732,
      "ĠJohn": 1733,
      "Ġamount": 1734,
      "Ġ0": 1735,
      "Ġage": 1736,
      "Ġassoci": 1737,
      "ĠBrit": 1738,
      "ued": 1739,
      "Ġmot": 1740,
      "Ġpopulation": 1741,
      "ocu": 1742,
      "for": 1743,
      "aps": 1744,
      "ides": 1745,
      "ĠEurope": 1746,
      "aper": 1747,
      "Ġlevels": 1748,
      "orts": 1749,
      "ĠAll": 1750,
      "Ġcome": 1751,
      "Ġdescrib": 1752,
      "ogn": 1753,
      "ope": 1754,
      "nal": 1755,
      "Ġchem": 1756,
      "Ġfunction": 1757,
      "As": 1758,
      "itor": 1759,
      "ances": 1760,
      "ung": 1761,
      "ĠJew": 1762,
      "ones": 1763,
      "Ġ197": 1764,
      "Ġbenef": 1765,
      "rate": 1766,
      "Ġabove": 1767,
      "Ġindust": 1768,
      "ication": 1769,
      "Ġtemper": 1770,
      "min": 1771,
      "Ġresearc": 1772,
      "Ġproblem": 1773,
      "Ġoffic": 1774,
      "Ġcases": 1775,
      "Ġhard": 1776,
      "Ġleast": 1777,
      "vious": 1778,
      "Ġleft": 1779,
      "ĠAfric": 1780,
      "app": 1781,
      "Ġfil": 1782,
      "elf": 1783,
      "ledge": 1784,
      "Ġer": 1785,
      "oph": 1786,
      "Ġspecial": 1787,
      "rug": 1788,
      "ormal": 1789,
      "Ġsomething": 1790,
      "Ġusually": 1791,
      "Ġcal": 1792,
      "Ġtechnology": 1793,
      "iam": 1794,
      "enn": 1795,
      "by": 1796,
      "Ġrights": 1797,
      "Ġrepresent": 1798,
      "Ġestab": 1799,
      "Ġexist": 1800,
      "Ġsystems": 1801,
      "Ġill": 1802,
      "ators": 1803,
      "Ġhowever": 1804,
      "ales": 1805,
      "erence": 1806,
      "Ġsite": 1807,
      "Ġsw": 1808,
      "ences": 1809,
      "Ġcrit": 1810,
      "Ġpolitical": 1811,
      "ĠNorth": 1812,
      "Ġbecame": 1813,
      "Ġmembers": 1814,
      "ocus": 1815,
      "Ġside": 1816,
      "aster": 1817,
      "Ġbus": 1818,
      "ĠBe": 1819,
      "30": 1820,
      "icult": 1821,
      "Ġconn": 1822,
      "Ġinvest": 1823,
      "50": 1824,
      "Ġapplic": 1825,
      "ots": 1826,
      "ode": 1827,
      "ox": 1828,
      "uture": 1829,
      "Ġwords": 1830,
      "Ġcommunity": 1831,
      "Ġdays": 1832,
      "ember": 1833,
      "ray": 1834,
      "Ġ--": 1835,
      "Ġheart": 1836,
      "Ġtype": 1837,
      "rim": 1838,
      "Ġgre": 1839,
      "Ġcountries": 1840,
      "Ġmult": 1841,
      "Ġdr": 1842,
      "ctor": 1843,
      "lement": 1844,
      "Ġterm": 1845,
      "Ġmag": 1846,
      "Ġalong": 1847,
      "Ġyoung": 1848,
      "Ġcourse": 1849,
      "We": 1850,
      "Ġvol": 1851,
      "Ġpast": 1852,
      "Ġ14": 1853,
      "Ġtru": 1854,
      "Ġdri": 1855,
      "Ġdra": 1856,
      "Ġeducation": 1857,
      "oman": 1858,
      "ĠSoc": 1859,
      "Ġnecess": 1860,
      "NA": 1861,
      "sc": 1862,
      "wh": 1863,
      "ending": 1864,
      "Ġlikely": 1865,
      "Ġflow": 1866,
      "ĠGen": 1867,
      "Ġgeneral": 1868,
      "Ġconditions": 1869,
      "Ġnever": 1870,
      "ape": 1871,
      "selves": 1872,
      "If": 1873,
      "Ġcirc": 1874,
      "Ġtoget": 1875,
      "Ġtogether": 1876,
      "most": 1877,
      "Ġnext": 1878,
      "ĠTe": 1879,
      "Ġvir": 1880,
      "Ġchanges": 1881,
      "ison": 1882,
      "ane": 1883,
      "Ġsignificant": 1884,
      "ird": 1885,
      "right": 1886,
      "ĠSc": 1887,
      "Ġbegin": 1888,
      "ruction": 1889,
      "val": 1890,
      "ortun": 1891,
      "Ġsurface": 1892,
      "het": 1893,
      "Ġparent": 1894,
      "aining": 1895,
      "Ġspecific": 1896,
      "__": 1897,
      "Ġlearning": 1898,
      "Ġcharacter": 1899,
      "Ġnet": 1900,
      "ivil": 1901,
      "ands": 1902,
      "ours": 1903,
      "St": 1904,
      "ipp": 1905,
      "Ġhaving": 1906,
      "ĠMay": 1907,
      "Ġdue": 1908,
      "artment": 1909,
      "atch": 1910,
      "Ġenc": 1911,
      "Ġresults": 1912,
      "Ġgr": 1913,
      "ĠGo": 1914,
      "ecially": 1915,
      "ression": 1916,
      "ilities": 1917,
      "Ġ30": 1918,
      "yd": 1919,
      "anc": 1920,
      "Ġmaking": 1921,
      "ively": 1922,
      "Ġsimilar": 1923,
      "ĠDep": 1924,
      "earch": 1925,
      "Ġmov": 1926,
      "ĠYork": 1927,
      "Ġask": 1928,
      "Ġdam": 1929,
      "Ġgroups": 1930,
      "oot": 1931,
      "ĠWhat": 1932,
      "ĠâĢĺ": 1933,
      "Ġplac": 1934,
      "asing": 1935,
      "Ġkind": 1936,
      "Ġcolle": 1937,
      "Ġcomplete": 1938,
      "Ġaway": 1939,
      "An": 1940,
      "ges": 1941,
      "Ġworks": 1942,
      "ribut": 1943,
      "Ġ196": 1944,
      "oney": 1945,
      "Ġprofess": 1946,
      "Ġcity": 1947,
      "Ġpatients": 1948,
      "Ġz": 1949,
      "ĠGerm": 1950,
      "Ġrespons": 1951,
      "Ġcho": 1952,
      "especially": 1953,
      "Ġnational": 1954,
      "ĠRep": 1955,
      "ĠLe": 1956,
      "What": 1957,
      "Ġstudies": 1958,
      "cle": 1959,
      "Ġtoday": 1960,
      "Ġprim": 1961,
      "There": 1962,
      "Ġenough": 1963,
      "ĠEarth": 1964,
      "Ġlanguage": 1965,
      "ĠSo": 1966,
      "ffic": 1967,
      "ĠMar": 1968,
      "Ġscience": 1969,
      "Ġteac": 1970,
      "ĠOne": 1971,
      "Ġsum": 1972,
      "iting": 1973,
      "amin": 1974,
      "ĠWorld": 1975,
      "Ġdiscuss": 1976,
      "Ġstrong": 1977,
      "13": 1978,
      "ery": 1979,
      "ederal": 1980,
      "Ġimpact": 1981,
      "Ġgive": 1982,
      "ires": 1983,
      "Ġfuture": 1984,
      "Ġlower": 1985,
      "Ġlearn": 1986,
      "ott": 1987,
      "ĠBl": 1988,
      "Ġbehav": 1989,
      "af": 1990,
      "Ġground": 1991,
      "Ġdifficult": 1992,
      "Ġsubject": 1993,
      "ilt": 1994,
      "Ġfive": 1995,
      "Ġfocus": 1996,
      "Ġla": 1997,
      "Ġcreat": 1998,
      "iation": 1999,
      "ĠDr": 2000,
      "Ġimm": 2001,
      "Ġey": 2002,
      "Ġfeel": 2003,
      "Ġplants": 2004,
      "agement": 2005,
      "ency": 2006,
      "Ġupon": 2007,
      ".)": 2008,
      "rel": 2009,
      "ĠCal": 2010,
      "Ġfund": 2011,
      "ublic": 2012,
      "Ġincrease": 2013,
      "Ġvarious": 2014,
      "ump": 2015,
      "rams": 2016,
      "istic": 2017,
      "omes": 2018,
      "ĠThat": 2019,
      "Ġhigher": 2020,
      "Ġphot": 2021,
      "Ġeffects": 2022,
      "Ġfurther": 2023,
      "rated": 2024,
      "duct": 2025,
      "Ġfull": 2026,
      "ournal": 2027,
      "Ġresearchers": 2028,
      "Ġevidence": 2029,
      "ule": 2030,
      "Ġalways": 2031,
      "ĠAmerica": 2032,
      "ĠAb": 2033,
      "Ġseen": 2034,
      "Ġitself": 2035,
      "ĠAss": 2036,
      "ique": 2037,
      "--": 2038,
      "Ġreturn": 2039,
      "17": 2040,
      "Ġ2012": 2041,
      "Ġsex": 2042,
      "Ġword": 2043,
      "Ġdeveloped": 2044,
      "For": 2045,
      "Ġfield": 2046,
      "ĠSome": 2047,
      "Ġpolic": 2048,
      "ĠSy": 2049,
      "Ġmedical": 2050,
      "ream": 2051,
      "Ġeither": 2052,
      "ĠAct": 2053,
      "Ġprotect": 2054,
      "Ġprob": 2055,
      "Ġrather": 2056,
      "Ġwhether": 2057,
      "ĠGe": 2058,
      "Ġindic": 2059,
      "port": 2060,
      "Ġoil": 2061,
      "Ġann": 2062,
      "Ġacross": 2063,
      "ready": 2064,
      "ae": 2065,
      "Ġespecially": 2066,
      "Ġline": 2067,
      "ibility": 2068,
      "ĠHis": 2069,
      "ervation": 2070,
      "side": 2071,
      "Ġknowledge": 2072,
      "lam": 2073,
      "Ġpressure": 2074,
      "Ġtry": 2075,
      "Ġfish": 2076,
      "SA": 2077,
      "Ġneeds": 2078,
      "):": 2079,
      "Ġemploy": 2080,
      "Ġsingle": 2081,
      "Ġrelations": 2082,
      "ches": 2083,
      "son": 2084,
      "Ġresources": 2085,
      "ront": 2086,
      "Ġtaken": 2087,
      "Ġinflu": 2088,
      "Ġrequire": 2089,
      "Ġlive": 2090,
      "Ġclose": 2091,
      "Ġworking": 2092,
      "Ġdocu": 2093,
      "ĠCar": 2094,
      "Ġloss": 2095,
      "lo": 2096,
      "Ġteam": 2097,
      "Ġstep": 2098,
      "Ġcollect": 2099,
      "ĠX": 2100,
      "ules": 2101,
      "thing": 2102,
      "alt": 2103,
      "etimes": 2104,
      "Ġblack": 2105,
      "Ġess": 2106,
      "ann": 2107,
      "Ġlay": 2108,
      "Ġquestion": 2109,
      "hib": 2110,
      "sh": 2111,
      "Ġdrug": 2112,
      "aves": 2113,
      "Ġkill": 2114,
      "ĠState": 2115,
      "sych": 2116,
      "acy": 2117,
      "Ġaddress": 2118,
      "Ġdest": 2119,
      "Ġcreate": 2120,
      "apt": 2121,
      "Ġcame": 2122,
      "iol": 2123,
      "itude": 2124,
      "Ġfail": 2125,
      "Ġevent": 2126,
      "Ġbrain": 2127,
      "ĠSouth": 2128,
      "Ġaccording": 2129,
      "overed": 2130,
      "Ġwhy": 2131,
      "uel": 2132,
      "itary": 2133,
      "Ġfall": 2134,
      "Ġstat": 2135,
      "Ġsent": 2136,
      "Ġways": 2137,
      "Ġred": 2138,
      "Ġwhite": 2139,
      "ĠBy": 2140,
      "ysis": 2141,
      "Ġconcer": 2142,
      "rict": 2143,
      "Ġparticip": 2144,
      "Ġthemselves": 2145,
      "Ġconsider": 2146,
      "Ġbelow": 2147,
      "stitute": 2148,
      "ttp": 2149,
      "Ġgoing": 2150,
      "hing": 2151,
      "my": 2152,
      "org": 2153,
      "Ġalready": 2154,
      "osis": 2155,
      "Ġneg": 2156,
      "Ġdia": 2157,
      "Ġpublished": 2158,
      "mb": 2159,
      "Ġhalf": 2160,
      "Ġconsum": 2161,
      "//": 2162,
      "14": 2163,
      "Ġri": 2164,
      "ites": 2165,
      "Ġliving": 2166,
      "Ġ2010": 2167,
      "Ġphysical": 2168,
      "Ġopt": 2169,
      "Ġtoward": 2170,
      "Ġpay": 2171,
      "Ġmic": 2172,
      "Ġmeet": 2173,
      "Ġtext": 2174,
      "Ġreason": 2175,
      "Ġsun": 2176,
      "Ġwr": 2177,
      "roll": 2178,
      "ications": 2179,
      "Ġrepl": 2180,
      "ĠHealth": 2181,
      "Ġmodel": 2182,
      "epend": 2183,
      "Ġexperience": 2184,
      "Ġthought": 2185,
      "ober": 2186,
      "ĠAust": 2187,
      "eter": 2188,
      "Ġprote": 2189,
      "Ġdi": 2190,
      "Ġskin": 2191,
      "fer": 2192,
      "ification": 2193,
      "itted": 2194,
      "Ġsens": 2195,
      "Ġdone": 2196,
      "Ġregion": 2197,
      "Ġ13": 2198,
      "Ġclaim": 2199,
      "Ġglobal": 2200,
      "rown": 2201,
      "Ġreally": 2202,
      "Ġhouse": 2203,
      "Ġsource": 2204,
      "Ġhold": 2205,
      "esc": 2206,
      "Ġonce": 2207,
      "Ġstates": 2208,
      "Ġactivity": 2209,
      "Ġtool": 2210,
      "urch": 2211,
      "Ġhistor": 2212,
      "oll": 2213,
      "aut": 2214,
      "gest": 2215,
      "urity": 2216,
      "ĠII": 2217,
      "Ġarg": 2218,
      "Ã©": 2219,
      "ĠHist": 2220,
      "Ġrole": 2221,
      "Ġeconomic": 2222,
      "://": 2223,
      "Ġinit": 2224,
      "aring": 2225,
      "rie": 2226,
      "Ġmodern": 2227,
      "Ġkey": 2228,
      "like": 2229,
      "ened": 2230,
      "ibr": 2231,
      "Ġclimate": 2232,
      "utes": 2233,
      "Ġproduction": 2234,
      "Ġmass": 2235,
      "Ġaccount": 2236,
      "Ġgrowth": 2237,
      "Ġscientists": 2238,
      "ER": 2239,
      "lor": 2240,
      "chie": 2241,
      "reg": 2242,
      "Ġbegan": 2243,
      "Ġrange": 2244,
      "aching": 2245,
      "verage": 2246,
      "ptoms": 2247,
      "Ġcomplex": 2248,
      "Ġrelig": 2249,
      "atures": 2250,
      "ĠPres": 2251,
      "Ġconsidered": 2252,
      "Ġreact": 2253,
      "onst": 2254,
      "ateg": 2255,
      "ĠWith": 2256,
      "Ġtook": 2257,
      "Ġdeg": 2258,
      "Ġtot": 2259,
      "ights": 2260,
      "ĠEnglish": 2261,
      "Ġ11": 2262,
      "ried": 2263,
      "Ġanimals": 2264,
      "Ġincreased": 2265,
      "Ġwhole": 2266,
      "Ġabs": 2267,
      "ulations": 2268,
      "Ġpred": 2269,
      "Ġwide": 2270,
      "Ġchemical": 2271,
      "Ġcop": 2272,
      "Ġmind": 2273,
      "lying": 2274,
      "Ġfamil": 2275,
      "Ġconcept": 2276,
      "now": 2277,
      "Ġwind": 2278,
      "mp": 2279,
      "nam": 2280,
      "Ġsepar": 2281,
      "reme": 2282,
      "augh": 2283,
      "Ġcr": 2284,
      "Ġneeded": 2285,
      "Ġproducts": 2286,
      "Ġcannot": 2287,
      "go": 2288,
      "Ġ|": 2289,
      "Ġactivities": 2290,
      "Ġprovides": 2291,
      "Ġansw": 2292,
      "fact": 2293,
      "Ġcy": 2294,
      "ivity": 2295,
      "Ġcreated": 2296,
      "Ġrecogn": 2297,
      "Al": 2298,
      "Ġmoney": 2299,
      "Ġentire": 2300,
      "vere": 2301,
      "attle": 2302,
      "Ġfrequ": 2303,
      "Ġcomputer": 2304,
      "estern": 2305,
      "icine": 2306,
      "aged": 2307,
      "Ġrecent": 2308,
      "cient": 2309,
      "Ġrequired": 2310,
      "Ġsize": 2311,
      "Ġdom": 2312,
      "Ġarticle": 2313,
      "Ġpriv": 2314,
      "cil": 2315,
      "ster": 2316,
      "iple": 2317,
      "stitution": 2318,
      "Ġquestions": 2319,
      "Ġenvironmental": 2320,
      "rad": 2321,
      "ĠMin": 2322,
      "Ġparts": 2323,
      "Ġself": 2324,
      "Ġsix": 2325,
      "apan": 2326,
      "Ġtradition": 2327,
      "bon": 2328,
      "Ġrelated": 2329,
      "Ġpotential": 2330,
      "Ġvers": 2331,
      "Ġcamp": 2332,
      "Ġaffect": 2333,
      "Ġmakes": 2334,
      "olic": 2335,
      "order": 2336,
      "Ġmor": 2337,
      "ched": 2338,
      "Ġsoft": 2339,
      "rought": 2340,
      "How": 2341,
      "abit": 2342,
      "oura": 2343,
      "Ġstory": 2344,
      "Ġ100": 2345,
      "Ġrelative": 2346,
      "iddle": 2347,
      "ĠResearch": 2348,
      "Ġbusiness": 2349,
      "Ġbig": 2350,
      "ĠCo": 2351,
      "ume": 2352,
      "Ch": 2353,
      "iment": 2354,
      "Ġtypes": 2355,
      "16": 2356,
      "medi": 2357,
      "Ġfig": 2358,
      "empt": 2359,
      "ask": 2360,
      "Ġ25": 2361,
      "Ġintrodu": 2362,
      "Ġdetail": 2363,
      "Ġweek": 2364,
      "ĠPe": 2365,
      "Ġengine": 2366,
      "uation": 2367,
      "Ġflu": 2368,
      "Ġalmost": 2369,
      "Ġobserv": 2370,
      "Ġchall": 2371,
      "Ġnature": 2372,
      "Ġstudent": 2373,
      "rect": 2374,
      "Ġwin": 2375,
      "Ġport": 2376,
      "chan": 2377,
      "Ġactually": 2378,
      "Ġcut": 2379,
      "Ġ2011": 2380,
      "ĠDepartment": 2381,
      "ius": 2382,
      "Ġissues": 2383,
      "Ġprovided": 2384,
      "ington": 2385,
      "Ġver": 2386,
      "Ġyet": 2387,
      "Ġpaper": 2388,
      "Ġinteract": 2389,
      "ĠCenter": 2390,
      "atives": 2391,
      "Ġsubst": 2392,
      "Ġvalue": 2393,
      "ĠAm": 2394,
      "ĠNo": 2395,
      "vey": 2396,
      "Ġpage": 2397,
      "Ġmaterials": 2398,
      "ĠStud": 2399,
      "ounds": 2400,
      "ai": 2401,
      "ĠComp": 2402,
      "Ġ50": 2403,
      "Ġimprove": 2404,
      "ĠBritish": 2405,
      "Ġtell": 2406,
      "Ġge": 2407,
      "Ġsurv": 2408,
      "Ġtemperature": 2409,
      "ĠGu": 2410,
      "ĠCanad": 2411,
      "Ġlink": 2412,
      "ronic": 2413,
      "When": 2414,
      "ma": 2415,
      "Ġcle": 2416,
      "sequ": 2417,
      "oses": 2418,
      "ript": 2419,
      "Ġidea": 2420,
      "Ġshows": 2421,
      "Ġsuper": 2422,
      "Ġmonths": 2423,
      "urs": 2424,
      "pid": 2425,
      "Ġstandard": 2426,
      "ĠSec": 2427,
      "ables": 2428,
      "Ġprograms": 2429,
      "Ġsense": 2430,
      "ney": 2431,
      "eds": 2432,
      "ĠScience": 2433,
      "Ġcit": 2434,
      "ĠCont": 2435,
      "Ġadult": 2436,
      "Ġachie": 2437,
      "ops": 2438,
      "Ġregard": 2439,
      "Ġearth": 2440,
      "Ġrate": 2441,
      "ety": 2442,
      "uck": 2443,
      "raft": 2444,
      "ĠBo": 2445,
      "Ġgreen": 2446,
      "ival": 2447,
      "Ġreduce": 2448,
      "Ġpractice": 2449,
      "minist": 2450,
      "To": 2451,
      "Ġtherap": 2452,
      "ĠJapan": 2453,
      "Ġsymptoms": 2454,
      "oes": 2455,
      "Ġdeb": 2456,
      "Ġproduce": 2457,
      "ply": 2458,
      "ĠShe": 2459,
      "ush": 2460,
      "Ġnormal": 2461,
      "ĠJu": 2462,
      "Ġ2008": 2463,
      "Ġ/": 2464,
      "Ġgas": 2465,
      "Ġsure": 2466,
      "Ġbuilding": 2467,
      "Ġaction": 2468,
      "ister": 2469,
      "Ġmaint": 2470,
      "atter": 2471,
      "acks": 2472,
      "Ġtraining": 2473,
      "Ġcoun": 2474,
      "adem": 2475,
      "Ġarch": 2476,
      "ensive": 2477,
      "Ġdiv": 2478,
      "amb": 2479,
      "umb": 2480,
      "iction": 2481,
      "Ġwild": 2482,
      "Ġreported": 2483,
      "Ġservice": 2484,
      "Ġaccept": 2485,
      "Ġemer": 2486,
      "Ġrecomm": 2487,
      "Ġassociated": 2488,
      "Ġforce": 2489,
      "Ġbuilt": 2490,
      "Ġnecessary": 2491,
      "put": 2492,
      "Ġsam": 2493,
      "Ġtrue": 2494,
      "ĠDav": 2495,
      "ging": 2496,
      "Ġconduct": 2497,
      "ips": 2498,
      "rial": 2499,
      "inary": 2500,
      "Ġliter": 2501,
      "'re": 2502,
      "Ġstructure": 2503,
      "Ġever": 2504,
      "lim": 2505,
      "Ġthreat": 2506,
      "ĠCor": 2507,
      "Ġprevious": 2508,
      "Ġtown": 2509,
      "ĠAfter": 2510,
      "Ġce": 2511,
      "usion": 2512,
      "erve": 2513,
      "Ġrelationship": 2514,
      "ĠRet": 2515,
      "Ġmeasure": 2516,
      "Ġstri": 2517,
      "Ġdig": 2518,
      "ternal": 2519,
      "ext": 2520,
      "Ġtotal": 2521,
      "ĠMan": 2522,
      "ID": 2523,
      "erous": 2524,
      "Ġcondition": 2525,
      "Ġcolor": 2526,
      "Ġbirth": 2527,
      "Ġgreater": 2528,
      "uary": 2529,
      "lex": 2530,
      "Ġlab": 2531,
      "igation": 2532,
      "ene": 2533,
      "ĠJan": 2534,
      "Ġsett": 2535,
      "Ġfri": 2536,
      "Ġthroughout": 2537,
      "Ġled": 2538,
      "Ġlonger": 2539,
      "lt": 2540,
      "lies": 2541,
      "Ġquick": 2542,
      "Ġdesigned": 2543,
      "Ġrev": 2544,
      "ĠTr": 2545,
      "Ġspe": 2546,
      "izing": 2547,
      "Ġrespect": 2548,
      "pro": 2549,
      "Ġavoid": 2550,
      "Ġheav": 2551,
      "Ġopportun": 2552,
      "Ġparents": 2553,
      "Ġir": 2554,
      "mon": 2555,
      "Ġfat": 2556,
      "aff": 2557,
      "ming": 2558,
      "ections": 2559,
      "Ġcoll": 2560,
      "Ġbar": 2561,
      "Ġens": 2562,
      "imately": 2563,
      "Ġorigin": 2564,
      "ps": 2565,
      "ze": 2566,
      "osition": 2567,
      "But": 2568,
      "gram": 2569,
      "Ġfarm": 2570,
      "ĠMarch": 2571,
      "ĠInstitute": 2572,
      "duc": 2573,
      "Ġissue": 2574,
      "Ġcaused": 2575,
      "Ġoriginal": 2576,
      "Ġofficial": 2577,
      "ccording": 2578,
      "ino": 2579,
      "aries": 2580,
      "arily": 2581,
      "ief": 2582,
      "Ġtax": 2583,
      "Ġviol": 2584,
      "Ġability": 2585,
      "Ġcivil": 2586,
      "rand": 2587,
      "Ġsimple": 2588,
      "Ġpattern": 2589,
      "Ġunderstanding": 2590,
      "Ġmarket": 2591,
      "ror": 2592,
      "Ġdiet": 2593,
      "ĠCons": 2594,
      "ES": 2595,
      "Ġ2009": 2596,
      "acc": 2597,
      "Ġcontact": 2598,
      "Ġ194": 2599,
      "ropri": 2600,
      "Ġmechan": 2601,
      "oon": 2602,
      "ĠCalif": 2603,
      "ham": 2604,
      "Ġ2007": 2605,
      "ows": 2606,
      "ĠEd": 2607,
      "Ġinternational": 2608,
      "asc": 2609,
      "Ġhttp": 2610,
      "Ġlot": 2611,
      "ĠInternational": 2612,
      "Ġsuff": 2613,
      "Ġtaking": 2614,
      "Ġpurp": 2615,
      "Ġhours": 2616,
      "Ġvit": 2617,
      "Ġquality": 2618,
      "Ġsqu": 2619,
      "Ġsometimes": 2620,
      "Ġterms": 2621,
      "Ġnetwork": 2622,
      "leep": 2623,
      "21": 2624,
      "icles": 2625,
      "Ġcontent": 2626,
      "Ġwritten": 2627,
      "Ġdiagn": 2628,
      "inks": 2629,
      "ached": 2630,
      "Ġschools": 2631,
      "On": 2632,
      "Ġmanagement": 2633,
      "Ġeffective": 2634,
      "bo": 2635,
      "dom": 2636,
      "Ġcontain": 2637,
      "Ġtravel": 2638,
      "fully": 2639,
      "Ġmedia": 2640,
      "ising": 2641,
      "utions": 2642,
      "Ġanalysis": 2643,
      "che": 2644,
      "Ġnuc": 2645,
      "Ġut": 2646,
      "based": 2647,
      "Ġshown": 2648,
      "Ġweight": 2649,
      "Ġexerc": 2650,
      "ĠKing": 2651,
      "aters": 2652,
      "Ġstop": 2653,
      "rench": 2654,
      "istance": 2655,
      "Ġjud": 2656,
      "Ġattempt": 2657,
      "Ġbring": 2658,
      "Ġlate": 2659,
      "Ġforms": 2660,
      "Ġmatter": 2661,
      "Ġbur": 2662,
      "Ġlabor": 2663,
      "Ġinteg": 2664,
      "Ġincreasing": 2665,
      "Ġgenerally": 2666,
      "Ġapproach": 2667,
      "pril": 2668,
      "ades": 2669,
      "ornia": 2670,
      "olec": 2671,
      "nces": 2672,
      "Ġconc": 2673,
      "ĠPress": 2674,
      "Ġcomes": 2675,
      "ĠFran": 2676,
      "Ġproduced": 2677,
      "Ġinvolved": 2678,
      "Ġindividuals": 2679,
      "Ġvisit": 2680,
      "yl": 2681,
      "eration": 2682,
      "Ġuses": 2683,
      "Ġemb": 2684,
      "Ġrefer": 2685,
      "Ġpopular": 2686,
      "Ġsources": 2687,
      "Ġinj": 2688,
      "ricult": 2689,
      "Ġtheory": 2690,
      "Ġpath": 2691,
      "Ġfederal": 2692,
      "Ġscientific": 2693,
      "ctions": 2694,
      "undred": 2695,
      "Ġparticularly": 2696,
      "Ġeffic": 2697,
      "Ġprobably": 2698,
      "Ġsimply": 2699,
      "25": 2700,
      "ening": 2701,
      "Ġnumbers": 2702,
      "hood": 2703,
      "ira": 2704,
      "Ġlog": 2705,
      "Ġindepend": 2706,
      "useum": 2707,
      "Ġdocument": 2708,
      "ĠCount": 2709,
      "Ġdeep": 2710,
      "ĠWest": 2711,
      "Ġoutside": 2712,
      "Ġcapt": 2713,
      "cean": 2714,
      "ĠMus": 2715,
      "aving": 2716,
      "199": 2717,
      "ĠHar": 2718,
      "Ġspread": 2719,
      "ĠPresident": 2720,
      "Ġheld": 2721,
      "aging": 2722,
      "Ġjob": 2723,
      "ressed": 2724,
      "Ġevents": 2725,
      "lands": 2726,
      "ĠSchool": 2727,
      "ashington": 2728,
      "You": 2729,
      "onse": 2730,
      "ĠAug": 2731,
      "Ġsat": 2732,
      "Ġmilitary": 2733,
      "light": 2734,
      "Ġface": 2735,
      "Ġdeveloping": 2736,
      "Ġbehavior": 2737,
      "hern": 2738,
      "haps": 2739,
      "Ġsea": 2740,
      "ĠAustral": 2741,
      "Ġvide": 2742,
      "Ġperm": 2743,
      "Ġpict": 2744,
      "amed": 2745,
      "Ġcompl": 2746,
      "ribution": 2747,
      "Ġmovement": 2748,
      "Ġmeaning": 2749,
      "ores": 2750,
      "uk": 2751,
      "abet": 2752,
      "Ġ24": 2753,
      "Ġseries": 2754,
      "80": 2755,
      "www": 2756,
      "ĠApp": 2757,
      "Ġaverage": 2758,
      "Ġfire": 2759,
      "Ġposition": 2760,
      "rieved": 2761,
      "Ġbasic": 2762,
      "Ġ40": 2763,
      "Ġfactors": 2764,
      "bre": 2765,
      "Ġfem": 2766,
      "Ġnorth": 2767,
      "see": 2768,
      "osure": 2769,
      "ĠJune": 2770,
      "Ġcourt": 2771,
      "Ġetc": 2772,
      "Ġindustry": 2773,
      "ana": 2774,
      "Ġago": 2775,
      "Ġthus": 2776,
      "Ġfa": 2777,
      "Ġdou": 2778,
      "Ġpersonal": 2779,
      "Ġservices": 2780,
      "ength": 2781,
      "ĠCalifornia": 2782,
      "ev": 2783,
      "Ġthous": 2784,
      "irit": 2785,
      "thern": 2786,
      "ĠChina": 2787,
      "Ġfront": 2788,
      "Ġwhose": 2789,
      "Ġcompany": 2790,
      "where": 2791,
      "eding": 2792,
      "ĠWill": 2793,
      "Ġincludes": 2794,
      "ternet": 2795,
      "eal": 2796,
      "Ġthing": 2797,
      "ĠAfrican": 2798,
      "Ġconcent": 2799,
      "rast": 2800,
      "ĠPer": 2801,
      "ĠInf": 2802,
      "ĠQu": 2803,
      "ners": 2804,
      "Ġslow": 2805,
      "ancy": 2806,
      "Ġalthough": 2807,
      "Ġx": 2808,
      "ĠAnt": 2809,
      "ecause": 2810,
      "Ġdisp": 2811,
      "Ġinterp": 2812,
      ");": 2813,
      "Ġfile": 2814,
      "ĠRiver": 2815,
      "vention": 2816,
      "Ġestablished": 2817,
      "ese": 2818,
      "Ġheat": 2819,
      "orthern": 2820,
      "Ġexperien": 2821,
      "Ġserious": 2822,
      "ĠJewish": 2823,
      "ĠPr": 2824,
      "orders": 2825,
      "Ġelectric": 2826,
      "na": 2827,
      "lease": 2828,
      "Ġremov": 2829,
      "Ġhost": 2830,
      "ift": 2831,
      "Ġtar": 2832,
      "Ġfeet": 2833,
      "ĠJuly": 2834,
      "IS": 2835,
      "overy": 2836,
      "ulate": 2837,
      "Ġexc": 2838,
      "ĠSept": 2839,
      "Ġdemonst": 2840,
      "ĠIm": 2841,
      "ĠMore": 2842,
      "rael": 2843,
      "ĠPart": 2844,
      "ĠWhile": 2845,
      "ĠIndian": 2846,
      "Ġcitiz": 2847,
      "aches": 2848,
      "Ġwriting": 2849,
      "ony": 2850,
      "Ġnation": 2851,
      "ĠSu": 2852,
      "ender": 2853,
      "Ġdoctor": 2854,
      "Ġcommand": 2855,
      "ĠÂ": 2856,
      "Ġcarbon": 2857,
      "uge": 2858,
      "Ġap": 2859,
      "Ġhundred": 2860,
      "Ġreview": 2861,
      "ĠVal": 2862,
      "Ġcentral": 2863,
      "Ġmess": 2864,
      "ĠInt": 2865,
      "ĠWashington": 2866,
      "Ġcommunities": 2867,
      "bor": 2868,
      "ille": 2869,
      "Ġimage": 2870,
      "ĠRetrieved": 2871,
      "IN": 2872,
      "Ġworkers": 2873,
      "Ġbreak": 2874,
      "cies": 2875,
      "hold": 2876,
      "isms": 2877,
      "Ġcompan": 2878,
      "istry": 2879,
      "pper": 2880,
      "Ġpsych": 2881,
      "Ġthird": 2882,
      "Ġonline": 2883,
      "Ġattention": 2884,
      "Ġvariety": 2885,
      "AT": 2886,
      "imum": 2887,
      "ĠMe": 2888,
      "Ġassess": 2889,
      "coh": 2890,
      "Ġsou": 2891,
      "anced": 2892,
      "Ġking": 2893,
      "ovember": 2894,
      "Ġactive": 2895,
      "Ġincluded": 2896,
      "life": 2897,
      "Ġnut": 2898,
      "cember": 2899,
      "ĠCong": 2900,
      "Ġsust": 2901,
      "Ġtherefore": 2902,
      "Ġpoor": 2903,
      "uman": 2904,
      "Ġox": 2905,
      "Ġlives": 2906,
      "ĠPar": 2907,
      "Ġaltern": 2908,
      "Ġgenetic": 2909,
      "cell": 2910,
      "Ġinstead": 2911,
      "Ġtalk": 2912,
      "ided": 2913,
      "Ġcontinue": 2914,
      "âĢ¦": 2915,
      "ĠEduc": 2916,
      "Ġimmedi": 2917,
      "reng": 2918,
      "issions": 2919,
      "Ġextreme": 2920,
      "Ġestim": 2921,
      "Ġanimal": 2922,
      "ns": 2923,
      "Ġsection": 2924,
      "istics": 2925,
      "unch": 2926,
      "ON": 2927,
      "oly": 2928,
      "ĠTra": 2929,
      "erson": 2930,
      "Ġpoll": 2931,
      "ĠChristian": 2932,
      "ography": 2933,
      "Ġmount": 2934,
      "uls": 2935,
      "Ġcauses": 2936,
      "ĠApril": 2937,
      "estic": 2938,
      "Ġconsist": 2939,
      "Ġsoftware": 2940,
      "Ġcat": 2941,
      "aily": 2942,
      "mosp": 2943,
      "Ġdog": 2944,
      "gency": 2945,
      "itation": 2946,
      "Ġful": 2947,
      "omb": 2948,
      "Ġbroad": 2949,
      "Ġmill": 2950,
      "ĠFrench": 2951,
      "Ġbooks": 2952,
      "Ġnearly": 2953,
      "Ġpolicy": 2954,
      "Ġhabit": 2955,
      "Ġcompet": 2956,
      "Ġvari": 2957,
      "Ġtests": 2958,
      "Ġlaws": 2959,
      "Ġbelieve": 2960,
      "Ġsafe": 2961,
      "OR": 2962,
      "ĠAc": 2963,
      "Ġadded": 2964,
      "Ġdefin": 2965,
      "Ġculture": 2966,
      "Ġmethods": 2967,
      "22": 2968,
      "Ġcapital": 2969,
      "ĠAg": 2970,
      "uth": 2971,
      "Ġtur": 2972,
      "Ġwent": 2973,
      "ads": 2974,
      "Ġprep": 2975,
      "Ġwall": 2976,
      "ilos": 2977,
      "ulated": 2978,
      "AR": 2979,
      "Ġast": 2980,
      "Ġmother": 2981,
      "ĠIS": 2982,
      "Ġhumans": 2983,
      "Ġmiles": 2984,
      "Ġseems": 2985,
      "ĠGovern": 2986,
      "erg": 2987,
      "Ġbul": 2988,
      "ĠBar": 2989,
      "Ġcontinued": 2990,
      "Ġadditional": 2991,
      "Ġsouth": 2992,
      "ĠHer": 2993,
      "Ġleaders": 2994,
      "Ġsafety": 2995,
      "ĠPre": 2996,
      "Ġsearch": 2997,
      "nes": 2998,
      "ama": 2999,
      "Ġwebs": 3000,
      "ĠChild": 3001,
      "Ġregular": 3002,
      "Ġreflect": 3003,
      "Ġpositive": 3004,
      "ĠMany": 3005,
      "Ġsoil": 3006,
      "ĠVol": 3007,
      "Ġcheck": 3008,
      "\",": 3009,
      "Ġbr": 3010,
      "ondon": 3011,
      "Ġcross": 3012,
      "ĠOct": 3013,
      "Ġlack": 3014,
      "ĠChe": 3015,
      "Ġlimited": 3016,
      "Ġmusic": 3017,
      "Ġteachers": 3018,
      "aul": 3019,
      "pe": 3020,
      "Ġdy": 3021,
      "Ġnight": 3022,
      "elling": 3023,
      "ises": 3024,
      "Ġattack": 3025,
      "Ġsus": 3026,
      "Ġbehind": 3027,
      "Ġlove": 3028,
      "Ġord": 3029,
      "Ġskills": 3030,
      "Ġprimary": 3031,
      "Ġegg": 3032,
      "Ġreceived": 3033,
      "ĠAssoci": 3034,
      "Ġcompared": 3035,
      "Ġsociety": 3036,
      "ĠAugust": 3037,
      "ufact": 3038,
      "isions": 3039,
      "Ġshare": 3040,
      "ologies": 3041,
      "Ġlost": 3042,
      "Ġimplement": 3043,
      "Ġlarger": 3044,
      "ĠIsrael": 3045,
      "yond": 3046,
      "ĠChar": 3047,
      "Ġfamilies": 3048,
      "Ġquite": 3049,
      "Ġnews": 3050,
      "Ġdescribed": 3051,
      "Ġbeginning": 3052,
      "60": 3053,
      "Ġste": 3054,
      "Ġappropri": 3055,
      "Ġinstit": 3056,
      "Ġreading": 3057,
      "ĠJanuary": 3058,
      "Ġec": 3059,
      "ĠRuss": 3060,
      "Ġsolar": 3061,
      "AN": 3062,
      "ica": 3063,
      "Ġprec": 3064,
      "Ġforest": 3065,
      "xic": 3066,
      "arr": 3067,
      "Ġdecl": 3068,
      "Ġdetermine": 3069,
      "Ġmach": 3070,
      "wise": 3071,
      "ĠHistory": 3072,
      "And": 3073,
      "lied": 3074,
      "inical": 3075,
      "edia": 3076,
      "Ġbrought": 3077,
      "Ġstreng": 3078,
      "ĠMost": 3079,
      "Ġunc": 3080,
      "Ġhealthy": 3081,
      "Ġgrowing": 3082,
      "omet": 3083,
      "cohol": 3084,
      "Ġbacter": 3085,
      "lection": 3086,
      "Ġpregn": 3087,
      "Ġencoura": 3088,
      "rates": 3089,
      "Ġ=": 3090,
      "Ġjo": 3091,
      "Ġdirectly": 3092,
      "Ġwarm": 3093,
      "term": 3094,
      "Ġdeal": 3095,
      "Ġresponse": 3096,
      "Ġdraw": 3097,
      "Ġmid": 3098,
      "Ġmolec": 3099,
      "Ġprint": 3100,
      "Ġbab": 3101,
      "Ġcontains": 3102,
      "ĠVir": 3103,
      "Ġdamage": 3104,
      "IT": 3105,
      "Ġtakes": 3106,
      "Ġfuel": 3107,
      "irm": 3108,
      "Ġselect": 3109,
      "Ġdoing": 3110,
      "Ġdiseases": 3111,
      "Ġperformance": 3112,
      "ĠEuropean": 3113,
      "Ġpack": 3114,
      "Ġmicro": 3115,
      "isl": 3116,
      "Ġprotein": 3117,
      "24": 3118,
      "elt": 3119,
      "ension": 3120,
      "Ġfram": 3121,
      "ĠSociety": 3122,
      "ĠSeptember": 3123,
      "Ġ,": 3124,
      "ĠĊ": 3125,
      "Ġhor": 3126,
      "Ġtrade": 3127,
      "gar": 3128,
      "itte": 3129,
      "Ġfav": 3130,
      "ĠLaw": 3131,
      "Ġcover": 3132,
      "Ġhimself": 3133,
      "uries": 3134,
      "used": 3135,
      "Ġapplication": 3136,
      "Ġshall": 3137,
      "Ġclean": 3138,
      "Ġ2006": 3139,
      "Ġwood": 3140,
      "ĠSch": 3141,
      "ĠMc": 3142,
      "ription": 3143,
      "gypt": 3144,
      "Ġlegal": 3145,
      "He": 3146,
      "yle": 3147,
      "Ġimpl": 3148,
      "Ġideas": 3149,
      "Ġidentify": 3150,
      "Ġinside": 3151,
      "Ġseason": 3152,
      "Ġstarted": 3153,
      "PA": 3154,
      "inate": 3155,
      "Ġadop": 3156,
      "Ġ2005": 3157,
      "oor": 3158,
      "Ġmonitor": 3159,
      "Ġtiss": 3160,
      "iles": 3161,
      "Ġsupply": 3162,
      "Ġmagn": 3163,
      "icated": 3164,
      "Ġhyd": 3165,
      "ĠDecember": 3166,
      "Ġsummer": 3167,
      "ground": 3168,
      "Ġprivate": 3169,
      "Ġsil": 3170,
      "Ġcust": 3171,
      "ĠSm": 3172,
      "ĠCoun": 3173,
      "Ġ2013": 3174,
      "Ġpatient": 3175,
      "craft": 3176,
      "Ġformer": 3177,
      "roy": 3178,
      "Ġhyp": 3179,
      "Ġmemory": 3180,
      "Ġvirus": 3181,
      "edom": 3182,
      "ceed": 3183,
      "illed": 3184,
      "osing": 3185,
      "Ġevolution": 3186,
      "Ġtransm": 3187,
      "Ġlooking": 3188,
      "Ġsound": 3189,
      "Ġreve": 3190,
      "ems": 3191,
      "rs": 3192,
      "Ġtree": 3193,
      "Ġforces": 3194,
      "Ġ21": 3195,
      "Ġacid": 3196,
      "Ġsequ": 3197,
      "Ġsevere": 3198,
      "ĠUN": 3199,
      "Ġdrink": 3200,
      "Ġborn": 3201,
      "Ġden": 3202,
      "Ġeat": 3203,
      "Ġproced": 3204,
      "Ġvill": 3205,
      "Ġrout": 3206,
      "Ġdoesn": 3207,
      "ĠPol": 3208,
      "ĠPark": 3209,
      "hetic": 3210,
      "ellow": 3211,
      "ĠIndia": 3212,
      "Ġtarget": 3213,
      "ari": 3214,
      "Ġspeed": 3215,
      "Ġsites": 3216,
      "Ġbenefits": 3217,
      "ĠGerman": 3218,
      "Ġlargest": 3219,
      "Ġgetting": 3220,
      "ĠSee": 3221,
      "ĠGl": 3222,
      "Ġgoal": 3223,
      "ĠDavid": 3224,
      "aid": 3225,
      "Ġaud": 3226,
      "Ġinn": 3227,
      "Ġcorrect": 3228,
      "Ġproperty": 3229,
      "ĠRec": 3230,
      "ĠOther": 3231,
      "Ġsoon": 3232,
      "Ġ2000": 3233,
      "Ġeasy": 3234,
      "One": 3235,
      "Ġice": 3236,
      "Ġsleep": 3237,
      "Ġkids": 3238,
      "Ġcenter": 3239,
      "set": 3240,
      "ĠFeb": 3241,
      "IC": 3242,
      "ĠLondon": 3243,
      "oke": 3244,
      "Ġeight": 3245,
      "ĠNovember": 3246,
      "Ġdispl": 3247,
      "Ġcoast": 3248,
      "ibrary": 3249,
      "lier": 3250,
      "Ġfru": 3251,
      "Ġder": 3252,
      "Ġtransport": 3253,
      "ĠAlthough": 3254,
      "Ġmanufact": 3255,
      "odies": 3256,
      "Ġ23": 3257,
      "Ġadminist": 3258,
      "Ġcompon": 3259,
      "Ġremain": 3260,
      "Ġleading": 3261,
      "Ġbase": 3262,
      "Ġep": 3263,
      "ider": 3264,
      "Ġagree": 3265,
      "Ġcompanies": 3266,
      "ĠServ": 3267,
      "ĠEgypt": 3268,
      "ĠInc": 3269,
      "AS": 3270,
      "IV": 3271,
      "Ġdead": 3272,
      "ĠJournal": 3273,
      "Ġemot": 3274,
      "Ġsal": 3275,
      "ĠAng": 3276,
      "ĠNe": 3277,
      "aces": 3278,
      "Ġprotection": 3279,
      "Ġgame": 3280,
      "Ġexcept": 3281,
      "Ġatmosp": 3282,
      "40": 3283,
      "70": 3284,
      "Ġminutes": 3285,
      "Ġbasis": 3286,
      "Ġpp": 3287,
      "ĠTw": 3288,
      "Ġefforts": 3289,
      "ĠCanada": 3290,
      "Ġtend": 3291,
      "room": 3292,
      "ects": 3293,
      "Ġbit": 3294,
      "Ġbal": 3295,
      "Ġgot": 3296,
      "uous": 3297,
      "asons": 3298,
      "alled": 3299,
      "Ġrecently": 3300,
      "ĠAmericans": 3301,
      "Ġwrite": 3302,
      "23": 3303,
      "rogen": 3304,
      "Ġpoints": 3305,
      "abetes": 3306,
      "26": 3307,
      "At": 3308,
      "den": 3309,
      "oma": 3310,
      "ĠInter": 3311,
      "Ġarri": 3312,
      "Ġbillion": 3313,
      "Ġeval": 3314,
      "inct": 3315,
      "Ġdark": 3316,
      "sec": 3317,
      "Ġuser": 3318,
      "ĠReg": 3319,
      "Ġsecurity": 3320,
      "iques": 3321,
      "Ġprior": 3322,
      "29": 3323,
      "Ġcarry": 3324,
      "Ġdemand": 3325,
      "Ġquickly": 3326,
      "ties": 3327,
      "Ġi": 3328,
      "enth": 3329,
      "rote": 3330,
      "oles": 3331,
      "ĠOb": 3332,
      "Ġextra": 3333,
      "nown": 3334,
      "Ġcool": 3335,
      "Ġancient": 3336,
      "Ġdang": 3337,
      "ĠDo": 3338,
      "Ġcitizens": 3339,
      "ls": 3340,
      "atur": 3341,
      "ico": 3342,
      "Ġones": 3343,
      "ĠDNA": 3344,
      "Ġrare": 3345,
      "ĠTechn": 3346,
      "ittee": 3347,
      "Ġcard": 3348,
      "anks": 3349,
      "rag": 3350,
      "Ġstra": 3351,
      "izations": 3352,
      "Ġdifference": 3353,
      "Ġbirds": 3354,
      "Ġnegative": 3355,
      "Ġanswer": 3356,
      "Ġlocated": 3357,
      "Ġhands": 3358,
      "ridge": 3359,
      "Ġdied": 3360,
      "Ġeth": 3361,
      "Ġlength": 3362,
      "Ġelse": 3363,
      "Ġtraditional": 3364,
      "water": 3365,
      "Ġdaily": 3366,
      "Ġlif": 3367,
      "hens": 3368,
      "itting": 3369,
      "Ġsold": 3370,
      "Ġcou": 3371,
      "Ġcode": 3372,
      "Ġlines": 3373,
      "Ġvict": 3374,
      "Ġtold": 3375,
      "rance": 3376,
      "ĠMon": 3377,
      "Ġdecre": 3378,
      "Ġestablish": 3379,
      "sect": 3380,
      "Ġcolon": 3381,
      "Ġprogress": 3382,
      "Ġrequires": 3383,
      "Ġeasily": 3384,
      "bit": 3385,
      "Ġpen": 3386,
      "Ġstress": 3387,
      "Ġgene": 3388,
      "Ġcommunication": 3389,
      "gery": 3390,
      "Ġharm": 3391,
      "Ġwaste": 3392,
      "apter": 3393,
      "ologist": 3394,
      "Ġobt": 3395,
      "Ġdepend": 3396,
      "Ġobjects": 3397,
      "Ġdrugs": 3398,
      "eks": 3399,
      "iology": 3400,
      "Ġvot": 3401,
      "ields": 3402,
      "Ġsexual": 3403,
      "ĠCouncil": 3404,
      "Ġbank": 3405,
      "Ġbott": 3406,
      "Ġnamed": 3407,
      "ĠCity": 3408,
      "Ġgenes": 3409,
      "Ġten": 3410,
      "Ġhot": 3411,
      "Ġpresident": 3412,
      "Ġspeak": 3413,
      "oming": 3414,
      "ĠChurch": 3415,
      "Ġ60": 3416,
      "ĠSystem": 3417,
      "Ġfoot": 3418,
      "ĠCour": 3419,
      "Ġimages": 3420,
      "Ġremains": 3421,
      "Ġallows": 3422,
      "cks": 3423,
      "rest": 3424,
      "Ġchalleng": 3425,
      "Ġmal": 3426,
      "ĠUs": 3427,
      "ĠSocial": 3428,
      "Ġeye": 3429,
      "Ġvideo": 3430,
      "ĠWilliam": 3431,
      "itch": 3432,
      "Ġfather": 3433,
      "Ġbeyond": 3434,
      "ĠNA": 3435,
      "ĠIslam": 3436,
      "ĠDevelop": 3437,
      "Ġplaces": 3438,
      "cop": 3439,
      "vest": 3440,
      "Ġfight": 3441,
      "arian": 3442,
      "leb": 3443,
      "Ġhar": 3444,
      "ocr": 3445,
      "Ġrule": 3446,
      "Ġplanet": 3447,
      "Ġsustain": 3448,
      "oe": 3449,
      "Ġ195": 3450,
      "Ġgradu": 3451,
      "Ġanti": 3452,
      "ĠAfrica": 3453,
      "odes": 3454,
      "ĠEast": 3455,
      "Ġdecision": 3456,
      "airs": 3457,
      "ospital": 3458,
      "Ġbad": 3459,
      "Ġeconomy": 3460,
      "year": 3461,
      "Ġmom": 3462,
      "Ġmut": 3463,
      "ĠEm": 3464,
      "ĠFirst": 3465,
      "Ġreligious": 3466,
      "ĠCounty": 3467,
      "ĠEducation": 3468,
      "By": 3469,
      "ĠJes": 3470,
      "Ġweb": 3471,
      "ruary": 3472,
      "Ġsomeone": 3473,
      "Ġrapid": 3474,
      "Ġinvestig": 3475,
      "Ġnuclear": 3476,
      "hel": 3477,
      "verse": 3478,
      "ĠRed": 3479,
      "ĠGreen": 3480,
      "ĠEngland": 3481,
      "Ġasked": 3482,
      "Ġtools": 3483,
      "ils": 3484,
      "astic": 3485,
      "Ġ2004": 3486,
      "Ġdevice": 3487,
      "Ġinfluence": 3488,
      "II": 3489,
      "RE": 3490,
      "Ġcorn": 3491,
      "aly": 3492,
      "Ġalt": 3493,
      "ĠGree": 3494,
      "Ġunique": 3495,
      "Ġmultiple": 3496,
      "Ġcred": 3497,
      "Ġund": 3498,
      "Ġtransl": 3499,
      "27": 3500,
      "Ġtit": 3501,
      "ĠArt": 3502,
      "Ġapplications": 3503,
      "Ġessential": 3504,
      "enty": 3505,
      "idents": 3506,
      "ĠEl": 3507,
      "Ġaware": 3508,
      "Ġbeg": 3509,
      "aint": 3510,
      "Ġsurround": 3511,
      "ancial": 3512,
      "fficient": 3513,
      "ĠAssociation": 3514,
      "Ġtrib": 3515,
      "iny": 3516,
      "Ġspirit": 3517,
      "Ġinfection": 3518,
      "Ġexposure": 3519,
      "Ġoccurs": 3520,
      "Ġdestroy": 3521,
      "AL": 3522,
      "So": 3523,
      "Ġstru": 3524,
      "ĠNot": 3525,
      "book": 3526,
      "Ġult": 3527,
      "iency": 3528,
      "lin": 3529,
      "Ġadj": 3530,
      "Ġoffer": 3531,
      "Ġhighly": 3532,
      "Ġvitamin": 3533,
      "Ġappropriate": 3534,
      "Ġmission": 3535,
      "Ġaccur": 3536,
      "Ġcritical": 3537,
      "come": 3538,
      "wide": 3539,
      "Ġ26": 3540,
      "Ġachieve": 3541,
      "mar": 3542,
      "Ġcommerc": 3543,
      "ĠJews": 3544,
      "orks": 3545,
      "Ġnames": 3546,
      "Ġcurrently": 3547,
      "Ġwebsite": 3548,
      "Ġaim": 3549,
      "Ġdry": 3550,
      "Ġagricult": 3551,
      "Ġsaw": 3552,
      "Ġcapac": 3553,
      "DA": 3554,
      "yth": 3555,
      "Ġmiddle": 3556,
      "Ġgave": 3557,
      "ilosoph": 3558,
      "Ġang": 3559,
      "ĠEnvironment": 3560,
      "Ġaspect": 3561,
      "Ġcontribut": 3562,
      "time": 3563,
      "Ġwa": 3564,
      "entially": 3565,
      "resp": 3566,
      "ĠProgram": 3567,
      "ĠMuslim": 3568,
      "Ġ190": 3569,
      "Ġrock": 3570,
      "iers": 3571,
      "resh": 3572,
      "Ġpeace": 3573,
      "Ġveget": 3574,
      "Ġwrote": 3575,
      "Ġhy": 3576,
      "Ġnothing": 3577,
      "Ġlocation": 3578,
      "Ġhon": 3579,
      "amm": 3580,
      "ought": 3581,
      "Ġanything": 3582,
      "Ġformed": 3583,
      "Ġresponsible": 3584,
      "equ": 3585,
      "king": 3586,
      "Ġdate": 3587,
      "âĢ¢": 3588,
      "Ġuseful": 3589,
      "ype": 3590,
      "Ġdiscovered": 3591,
      "Ġelements": 3592,
      "Ġdevices": 3593,
      "Ġplaced": 3594,
      "ey": 3595,
      "ĠAv": 3596,
      "ĠFrom": 3597,
      "ĠOctober": 3598,
      "hest": 3599,
      "Ġreach": 3600,
      "ida": 3601,
      "Ġweeks": 3602,
      "Ġsuccessful": 3603,
      "Ġcopy": 3604,
      "28": 3605,
      "Pro": 3606,
      "iar": 3607,
      "ĠDay": 3608,
      "Ġ193": 3609,
      "Ġtherapy": 3610,
      "inated": 3611,
      "Ġwaters": 3612,
      "ĠDis": 3613,
      "ander": 3614,
      "Ġrates": 3615,
      "ĠOf": 3616,
      "Ġhelps": 3617,
      "Ġshowed": 3618,
      "Ġfigure": 3619,
      "Ġsn": 3620,
      "oud": 3621,
      "imal": 3622,
      "Ġperhaps": 3623,
      "Ġexpected": 3624,
      "Ġprinc": 3625,
      "Ġcollection": 3626,
      "Ġexercise": 3627,
      "new": 3628,
      "Ġgard": 3629,
      "oday": 3630,
      "ĠRoman": 3631,
      "Ġreports": 3632,
      "rab": 3633,
      "These": 3634,
      "Ġwinter": 3635,
      "iber": 3636,
      "Ġcold": 3637,
      "Ġstrateg": 3638,
      "Ġfoods": 3639,
      "iat": 3640,
      "ĠGeneral": 3641,
      "ĠMex": 3642,
      "iverse": 3643,
      "With": 3644,
      "su": 3645,
      "ximately": 3646,
      "ĠSur": 3647,
      "ĠAir": 3648,
      "ests": 3649,
      "Ġexpand": 3650,
      "Ġillust": 3651,
      "Ġargu": 3652,
      "oring": 3653,
      "ingu": 3654,
      "Ġearlier": 3655,
      "Ġpopulations": 3656,
      "Ġensure": 3657,
      "ees": 3658,
      "fect": 3659,
      "Ġwalk": 3660,
      "Ġfinal": 3661,
      "Ġgives": 3662,
      "Ġalcohol": 3663,
      "ĠGreat": 3664,
      "Ġcontroll": 3665,
      "Ġfollowed": 3666,
      "Ġallowed": 3667,
      "ĠCommun": 3668,
      "bl": 3669,
      "can": 3670,
      "lege": 3671,
      "rief": 3672,
      "Ġcosts": 3673,
      "ĠUnion": 3674,
      "Ġtechniques": 3675,
      "Ġmember": 3676,
      "Ġbenefit": 3677,
      "Ġversion": 3678,
      "Ġson": 3679,
      "Ġmis": 3680,
      "omy": 3681,
      "ĠAre": 3682,
      "ĠCur": 3683,
      "Ġalone": 3684,
      "ĠHouse": 3685,
      "Ġsituation": 3686,
      "ford": 3687,
      "ken": 3688,
      "vant": 3689,
      "Ġtum": 3690,
      "Ġwoman": 3691,
      "ĠMich": 3692,
      "Ġcoming": 3693,
      "Ġquant": 3694,
      "ĠArch": 3695,
      "Ġvalues": 3696,
      "Ġvirt": 3697,
      "Ġriver": 3698,
      "Ġadults": 3699,
      "cles": 3700,
      "head": 3701,
      "ĠAccording": 3702,
      "Ġexact": 3703,
      "cious": 3704,
      "Ġeffort": 3705,
      "ĠPat": 3706,
      "ĠWeb": 3707,
      "Ġthinking": 3708,
      "EN": 3709,
      "aria": 3710,
      "Ġmiss": 3711,
      "ĠSun": 3712,
      "iece": 3713,
      "Ġaffected": 3714,
      "ĠSince": 3715,
      "ĠWater": 3716,
      "Ġ2003": 3717,
      "Ġacqu": 3718,
      "Ġseparate": 3719,
      "Ġpurpose": 3720,
      "ĠSim": 3721,
      "ĠMor": 3722,
      "ession": 3723,
      "ĠInternet": 3724,
      "Ġdisorders": 3725,
      "irection": 3726,
      "Ġjournal": 3727,
      "Ġphysic": 3728,
      "icate": 3729,
      "ĠSan": 3730,
      "Ġ28": 3731,
      "Ġfeed": 3732,
      "Ġconstruction": 3733,
      "Ġappears": 3734,
      "Ġfear": 3735,
      "Ġtechnologies": 3736,
      "Ġtrees": 3737,
      "____": 3738,
      "Ġ22": 3739,
      "hemat": 3740,
      "ĠPhil": 3741,
      "Ġ:": 3742,
      "reet": 3743,
      "Ġusers": 3744,
      "iot": 3745,
      "more": 3746,
      "Ġmention": 3747,
      "ipment": 3748,
      "Ġ2001": 3749,
      "Ġscreen": 3750,
      "Ġoccup": 3751,
      "Ġwon": 3752,
      "ĠDuring": 3753,
      "ĠProf": 3754,
      "Ġreceive": 3755,
      "inese": 3756,
      "rane": 3757,
      "Ġsem": 3758,
      "ĠYour": 3759,
      "Ġprison": 3760,
      "Ġ186": 3761,
      "ĠConf": 3762,
      "bur": 3763,
      "Ġtable": 3764,
      "Ġlegisl": 3765,
      "Ġimag": 3766,
      "Ġfeatures": 3767,
      "Ġmodels": 3768,
      "Ġimportance": 3769,
      "Ġsmaller": 3770,
      "ĠCongress": 3771,
      "ĠFebruary": 3772,
      ".|": 3773,
      "joy": 3774,
      "Ġfair": 3775,
      "aced": 3776,
      "Ġhistorical": 3777,
      "'ve": 3778,
      "ĠHigh": 3779,
      "Ġstandards": 3780,
      "Ġcompletely": 3781,
      "EC": 3782,
      "Ġcalc": 3783,
      ".;": 3784,
      "known": 3785,
      "ĠSw": 3786,
      "Ġrules": 3787,
      "Ġsch": 3788,
      "Ġbecomes": 3789,
      "Un": 3790,
      "semb": 3791,
      "idel": 3792,
      "Ġneigh": 3793,
      "Ġtele": 3794,
      "Ġconstruct": 3795,
      "ED": 3796,
      "rees": 3797,
      "ĠCD": 3798,
      "Ġoffice": 3799,
      "Ġpersons": 3800,
      "78": 3801,
      "off": 3802,
      "orge": 3803,
      "Ġpet": 3804,
      "Ġmax": 3805,
      "Ġtoxic": 3806,
      "ctors": 3807,
      "ĠMod": 3808,
      "riage": 3809,
      "Ġexperim": 3810,
      "Ġelectr": 3811,
      "Ġeyes": 3812,
      "itis": 3813,
      "ĠMuseum": 3814,
      "Ġfunctions": 3815,
      "ĠGermany": 3816,
      "ban": 3817,
      "ky": 3818,
      "olar": 3819,
      "Ġupper": 3820,
      "Ġadm": 3821,
      "Ġapplied": 3822,
      "Ġproviding": 3823,
      "Ġinteresting": 3824,
      "Ġurl": 3825,
      "Ġdiabetes": 3826,
      "Ġceleb": 3827,
      "ml": 3828,
      "atin": 3829,
      "Ġhope": 3830,
      "Ġstar": 3831,
      "ula": 3832,
      "Ġassign": 3833,
      "Ġbelieved": 3834,
      "Ġbreast": 3835,
      "Ġdetermined": 3836,
      "Ġmaintain": 3837,
      "ĠVirgin": 3838,
      "lant": 3839,
      "aled": 3840,
      "Ġprin": 3841,
      "Ġlimit": 3842,
      "Ġrecords": 3843,
      "aught": 3844,
      "aur": 3845,
      "pped": 3846,
      "izes": 3847,
      "Ġmajority": 3848,
      "Ġdegree": 3849,
      "Ġball": 3850,
      "icip": 3851,
      "Ġseven": 3852,
      "Ġleave": 3853,
      "Ġtesting": 3854,
      "Ġradio": 3855,
      "ĠJesus": 3856,
      "ĠViet": 3857,
      "Ġblock": 3858,
      "Ġdistance": 3859,
      "ĠCommission": 3860,
      "Ġcultural": 3861,
      "Ġfinancial": 3862,
      "rig": 3863,
      "Ġexec": 3864,
      "Ġrespond": 3865,
      "Ġtowards": 3866,
      "ĠFound": 3867,
      "Ġweather": 3868,
      "Ġ2002": 3869,
      "Ġautom": 3870,
      "Ġreleased": 3871,
      "Ġfast": 3872,
      "ste": 3873,
      "ĠMy": 3874,
      "rupt": 3875,
      "Ġolder": 3876,
      "Ġiniti": 3877,
      "oo": 3878,
      "Â°": 3879,
      "ĠNow": 3880,
      "Ġprocesses": 3881,
      "Ġorganization": 3882,
      "Ġreduced": 3883,
      "ĠCollege": 3884,
      "Ġprojects": 3885,
      "ĠJames": 3886,
      "Ġdefined": 3887,
      "Ġequal": 3888,
      "Ġpassed": 3889,
      "ĠRepublic": 3890,
      "ĠTrans": 3891,
      "90": 3892,
      "itz": 3893,
      "ĠSpec": 3894,
      "Ġadvant": 3895,
      "Ġanaly": 3896,
      "Ġtrying": 3897,
      "Ġstatus": 3898,
      "Ġthousands": 3899,
      "OS": 3900,
      "Ġpow": 3901,
      "Ġmental": 3902,
      "Ġhous": 3903,
      "ĠMal": 3904,
      "ĠKore": 3905,
      "Ġtrad": 3906,
      "Ġworked": 3907,
      "ĠBecause": 3908,
      "ocks": 3909,
      "Ġcoord": 3910,
      "unte": 3911,
      "Americ": 3912,
      "ha": 3913,
      "Ġcra": 3914,
      "Ġcrop": 3915,
      "Ġdivid": 3916,
      "Ġstay": 3917,
      "ĠThus": 3918,
      "Ġteaching": 3919,
      "Ġbelief": 3920,
      "back": 3921,
      "Ġmel": 3922,
      "amer": 3923,
      "udd": 3924,
      "phas": 3925,
      "Ġidentified": 3926,
      "ĠGovernment": 3927,
      "ĠCourt": 3928,
      "rew": 3929,
      "Ġsect": 3930,
      "itable": 3931,
      "Ġbodies": 3932,
      "Ġreasons": 3933,
      "Ġbeaut": 3934,
      "rome": 3935,
      "ocol": 3936,
      "ĠNet": 3937,
      "Ġdrive": 3938,
      "Some": 3939,
      "ĠRef": 3940,
      "co": 3941,
      "Ġconsequ": 3942,
      "ĠWestern": 3943,
      "ĠEven": 3944,
      "Ġ27": 3945,
      "Ġcompar": 3946,
      "ĠChinese": 3947,
      "Ġsymb": 3948,
      "Ġmig": 3949,
      "abilities": 3950,
      "Ġves": 3951,
      "wards": 3952,
      "Ġcommercial": 3953,
      "aign": 3954,
      "asion": 3955,
      "ĠCom": 3956,
      "Ġmedicine": 3957,
      "Ġreference": 3958,
      "Ġstream": 3959,
      "lick": 3960,
      "Ġchanged": 3961,
      "Ġfully": 3962,
      "HE": 3963,
      "men": 3964,
      "Ġbound": 3965,
      "Ġlat": 3966,
      "Ġadapt": 3967,
      "Ġveh": 3968,
      "Ġtrial": 3969,
      "Ġcustom": 3970,
      "33": 3971,
      "orage": 3972,
      "Ġregions": 3973,
      "Ġdidn": 3974,
      "force": 3975,
      "Ġexisting": 3976,
      "load": 3977,
      "rition": 3978,
      "ĠHuman": 3979,
      "ĠUse": 3980,
      "Ġgoes": 3981,
      "eech": 3982,
      "Ġconflic": 3983,
      "Ġpractices": 3984,
      "rations": 3985,
      "ĠTex": 3986,
      "Ġtrack": 3987,
      "ĠProt": 3988,
      "ĠMedicine": 3989,
      "Ġrunning": 3990,
      "Ex": 3991,
      "Ġvacc": 3992,
      "ciples": 3993,
      "Ġexpect": 3994,
      "Ġeverything": 3995,
      "ixed": 3996,
      "ĠRev": 3997,
      "Ġforeign": 3998,
      "Ġpredict": 3999,
      "Ġbacteria": 4000,
      "mat": 4001,
      "encies": 4002,
      "ara": 4003,
      "Ġassist": 4004,
      "Ġfindings": 4005,
      "Ġsteps": 4006,
      "ĠNASA": 4007,
      "Ġaid": 4008,
      "Ġpan": 4009,
      "Ġturned": 4010,
      "Ġocean": 4011,
      "They": 4012,
      "Ġrepe": 4013,
      "Ġcommonly": 4014,
      "ios": 4015,
      "oration": 4016,
      "Ġphen": 4017,
      "Ġdirection": 4018,
      "ĠSer": 4019,
      "ulf": 4020,
      "ĠHere": 4021,
      "Ġrob": 4022,
      "Ġmoving": 4023,
      "Ġteacher": 4024,
      "Ġlayer": 4025,
      "Ġfreedom": 4026,
      "Ġstrength": 4027,
      "oted": 4028,
      "Ġarmy": 4029,
      "ords": 4030,
      "erved": 4031,
      "ographic": 4032,
      "Ġgrant": 4033,
      "Ph": 4034,
      "cial": 4035,
      "ĠPaul": 4036,
      "Ġrise": 4037,
      "Ġinsp": 4038,
      "Ġequipment": 4039,
      "Ġparty": 4040,
      "enge": 4041,
      "aling": 4042,
      "Ġlic": 4043,
      "Ġlived": 4044,
      "Ġstaff": 4045,
      "ria": 4046,
      "Ġyouth": 4047,
      "que": 4048,
      "Ġtransfer": 4049,
      "Ġdistribution": 4050,
      "eared": 4051,
      "Ġwhom": 4052,
      "ĠBra": 4053,
      "Ġspring": 4054,
      "Ġenjoy": 4055,
      "Ġenter": 4056,
      "Ġstructures": 4057,
      "ĠBlack": 4058,
      "Ġdoub": 4059,
      "Ġ...": 4060,
      "Ġexpress": 4061,
      "Ġfactor": 4062,
      "Ġchoice": 4063,
      "ĠAustralia": 4064,
      "Ġtissue": 4065,
      "Ġmob": 4066,
      "ĠHen": 4067,
      "ĠFl": 4068,
      "Ġunivers": 4069,
      "Ġpoly": 4070,
      "Ġemp": 4071,
      "Ġrelatively": 4072,
      "ĠPeople": 4073,
      "BN": 4074,
      "pris": 4075,
      "uff": 4076,
      "ygen": 4077,
      "Ġbreat": 4078,
      "Ġnorm": 4079,
      "ĠMary": 4080,
      "ĠTheir": 4081,
      "apers": 4082,
      "Ġrain": 4083,
      "Ġeventually": 4084,
      "Ġfriends": 4085,
      "Ġelectricity": 4086,
      "AC": 4087,
      "iable": 4088,
      "Ġroad": 4089,
      "Ġpolice": 4090,
      "Ġorganizations": 4091,
      "porary": 4092,
      "Ġalternative": 4093,
      "rehens": 4094,
      "Ġmer": 4095,
      "ĠPublic": 4096,
      "Ġ29": 4097,
      "Ġroom": 4098,
      "Ġoffers": 4099,
      "Ġinstru": 4100,
      "Ġcru": 4101,
      "Ġwid": 4102,
      "Ġinsect": 4103,
      "ĠThen": 4104,
      "ĠRob": 4105,
      "Ġconservation": 4106,
      "Ġsurvey": 4107,
      "Ġdecades": 4108,
      "Ġnumerous": 4109,
      "ĠAlso": 4110,
      "Ġsuggests": 4111,
      "Ġrelease": 4112,
      "ias": 4113,
      "ĠSam": 4114,
      "Ġrich": 4115,
      "Ġacadem": 4116,
      "Ġexamples": 4117,
      "Ġsolution": 4118,
      "Ġestimated": 4119,
      "AM": 4120,
      "ht": 4121,
      "Ġwond": 4122,
      "Ġpric": 4123,
      "ĠMiss": 4124,
      "Ġnoted": 4125,
      "Ġplans": 4126,
      "Ġpowerful": 4127,
      "Ġapproximately": 4128,
      "Ġbaby": 4129,
      "Ġcapacity": 4130,
      "Ar": 4131,
      "Ġpresence": 4132,
      "Ġeveryone": 4133,
      "Ġoperations": 4134,
      "Ġpicture": 4135,
      "35": 4136,
      "itect": 4137,
      "Ġenh": 4138,
      "Ġsurgery": 4139,
      "Ġmeasures": 4140,
      "Ġillness": 4141,
      "Ġcities": 4142,
      "rian": 4143,
      "Ġvia": 4144,
      "ĠFlor": 4145,
      "Ġattract": 4146,
      "Ġobserved": 4147,
      "Ġfaith": 4148,
      "och": 4149,
      "Ġfoss": 4150,
      "Ġhom": 4151,
      "ament": 4152,
      "Ġconver": 4153,
      "Ġsigns": 4154,
      "Ġtypically": 4155,
      "za": 4156,
      "ald": 4157,
      "198": 4158,
      "45": 4159,
      "Ġcry": 4160,
      "road": 4161,
      "ĠMount": 4162,
      "ĠDirect": 4163,
      "Ġindustrial": 4164,
      "Ġfemale": 4165,
      "ĠDevelopment": 4166,
      "iant": 4167,
      "ÃŃ": 4168,
      "isher": 4169,
      "Ġpiece": 4170,
      "ibly": 4171,
      "Ġclinical": 4172,
      "Ġtreated": 4173,
      "ĠChildren": 4174,
      "hors": 4175,
      "ĠMill": 4176,
      "Ġincreases": 4177,
      "Ġconstant": 4178,
      "ying": 4179,
      "Ġmo": 4180,
      "Ġlung": 4181,
      "Ġeducational": 4182,
      "Ġcreating": 4183,
      "Ġofficials": 4184,
      "Ġimmediately": 4185,
      "Ġconv": 4186,
      "ĠMars": 4187,
      "ogen": 4188,
      "Ġslight": 4189,
      "Ġefficient": 4190,
      "ĠJust": 4191,
      "ĠOff": 4192,
      "Ġscale": 4193,
      "respond": 4194,
      "Is": 4195,
      "fort": 4196,
      "ĠPal": 4197,
      "Ġcontrast": 4198,
      "ĠPlan": 4199,
      "cast": 4200,
      "ĠMet": 4201,
      "ĠRead": 4202,
      "Ġinterpret": 4203,
      "ĠRo": 4204,
      "Ġclearly": 4205,
      "Ġopportunity": 4206,
      "Ġnorthern": 4207,
      "Ġchemicals": 4208,
      "Ġmoment": 4209,
      "zy": 4210,
      "Ġisn": 4211,
      "ĠRich": 4212,
      "Ġhighest": 4213,
      "win": 4214,
      "Ġbran": 4215,
      "Ġchance": 4216,
      "Ġchronic": 4217,
      "ensus": 4218,
      "Ġtruth": 4219,
      "clus": 4220,
      "Ġload": 4221,
      "Ad": 4222,
      "ET": 4223,
      "Ġcateg": 4224,
      "ortion": 4225,
      "ellig": 4226,
      "While": 4227,
      "Ġpurch": 4228,
      "house": 4229,
      "part": 4230,
      "Ġhuge": 4231,
      "ĠAut": 4232,
      "ĠMass": 4233,
      "ifically": 4234,
      "icking": 4235,
      "ĠBritain": 4236,
      "Ġprofessional": 4237,
      "related": 4238,
      "gress": 4239,
      "erior": 4240,
      "Ġcand": 4241,
      "Ġcook": 4242,
      "ĠRel": 4243,
      "ĠRober": 4244,
      "Ġrang": 4245,
      "Ġsynt": 4246,
      "Ġdifferences": 4247,
      "Ġrecommend": 4248,
      "Ġindependent": 4249,
      "Ġfavor": 4250,
      "ault": 4251,
      "Ġtou": 4252,
      "Ġsac": 4253,
      "orpor": 4254,
      "ctic": 4255,
      "Ġshape": 4256,
      "Ġqual": 4257,
      "name": 4258,
      "Ġlib": 4259,
      "Ġforward": 4260,
      "Ġkid": 4261,
      "Ġrot": 4262,
      "ĠWhite": 4263,
      "Ġbelong": 4264,
      "Ġconducted": 4265,
      "Ġsed": 4266,
      "Ġswe": 4267,
      "Ġweak": 4268,
      "Ġannual": 4269,
      "All": 4270,
      "Ġfresh": 4271,
      "Ġnor": 4272,
      "ĠEach": 4273,
      "Ġactual": 4274,
      "Ġblue": 4275,
      "Ġinstance": 4276,
      "Ġliterature": 4277,
      "'ll": 4278,
      "After": 4279,
      "band": 4280,
      "Ġ+": 4281,
      "Ġwatch": 4282,
      "ado": 4283,
      "iful": 4284,
      "Ġmotor": 4285,
      "ĠTexas": 4286,
      "erate": 4287,
      "ĠPort": 4288,
      "Ġenem": 4289,
      "ĠOur": 4290,
      "Ġreprodu": 4291,
      "oyal": 4292,
      "Ġkilled": 4293,
      "Ġign": 4294,
      "itors": 4295,
      "Ġbone": 4296,
      "ĠTest": 4297,
      "ota": 4298,
      "ologists": 4299,
      "Ġactions": 4300,
      "Ġboard": 4301,
      "Ġsitu": 4302,
      "Ġdisplay": 4303,
      "US": 4304,
      "gl": 4305,
      "Ġpump": 4306,
      "Ġgir": 4307,
      "Ġgold": 4308,
      "Ġstorage": 4309,
      "acific": 4310,
      "ocal": 4311,
      "ĠLou": 4312,
      "eces": 4313,
      "Ġarr": 4314,
      "Ġnovel": 4315,
      "Ġinstruct": 4316,
      "ĠNews": 4317,
      "Ġtro": 4318,
      "level": 4319,
      "ĠMag": 4320,
      "ĠFrance": 4321,
      "ĠMedical": 4322,
      "Ġwidely": 4323,
      "cont": 4324,
      "Ġtub": 4325,
      "isp": 4326,
      "iding": 4327,
      "igure": 4328,
      "aste": 4329,
      "ĠAsia": 4330,
      "Ġbox": 4331,
      "Ġpatterns": 4332,
      "ona": 4333,
      "Ġwear": 4334,
      "omas": 4335,
      "ett": 4336,
      "ĠMi": 4337,
      "Ġexhib": 4338,
      "ĠKen": 4339,
      "ribute": 4340,
      "Ġmeat": 4341,
      "cipl": 4342,
      "Ġlearned": 4343,
      "ĠCommon": 4344,
      "eff": 4345,
      "Ġmap": 4346,
      "ĠSen": 4347,
      "Ġvent": 4348,
      "unction": 4349,
      "Ġprice": 4350,
      "Ġopin": 4351,
      "Ġmoved": 4352,
      "Ġchoose": 4353,
      "Ġopportunities": 4354,
      "Ġpul": 4355,
      "ola": 4356,
      "Ġvote": 4357,
      "Ġrul": 4358,
      "Ġemphas": 4359,
      "Ġminor": 4360,
      "unting": 4361,
      "Ġinnov": 4362,
      "From": 4363,
      "Ġgiving": 4364,
      "ously": 4365,
      "Ġphilosoph": 4366,
      "Ġ1999": 4367,
      "Ġheavy": 4368,
      "Ġatmosphere": 4369,
      "Ġevalu": 4370,
      "atab": 4371,
      "Ġwest": 4372,
      "Ġpal": 4373,
      "ĠLord": 4374,
      "Ġcarried": 4375,
      "spec": 4376,
      "Ġproperties": 4377,
      "Ġmeeting": 4378,
      "32": 4379,
      "orial": 4380,
      "ĠMart": 4381,
      "Ġhair": 4382,
      "Ġworth": 4383,
      "Ġjoint": 4384,
      "Ġunit": 4385,
      "Ġconnection": 4386,
      "ĠVirginia": 4387,
      "uz": 4388,
      "Ġtim": 4389,
      "Ġbra": 4390,
      "roc": 4391,
      "ĠDes": 4392,
      "Ġdisorder": 4393,
      "anish": 4394,
      "ĠProject": 4395,
      "Ġintroduced": 4396,
      "Ġoxygen": 4397,
      "ĠMic": 4398,
      "Ġchurch": 4399,
      "Ġchief": 4400,
      "ĠUnder": 4401,
      "ĠInst": 4402,
      "ĠIts": 4403,
      "ĠSpace": 4404,
      "ĠIsland": 4405,
      "Ġfilm": 4406,
      "ĠAcadem": 4407,
      "ĠISBN": 4408,
      "Ġstrugg": 4409,
      "Ġvessel": 4410,
      "essor": 4411,
      "Ġvary": 4412,
      "Ġpresented": 4413,
      "Ġfruit": 4414,
      "iance": 4415,
      "Ġcontract": 4416,
      "Ġpartners": 4417,
      "Ġflood": 4418,
      "Ġvisual": 4419,
      "Ġreb": 4420,
      "Ġserve": 4421,
      "Ġgeneration": 4422,
      "Ġremoved": 4423,
      "ped": 4424,
      "Ġemissions": 4425,
      "Ġdistinct": 4426,
      "Ġprofessor": 4427,
      "Ġwrong": 4428,
      "Ġdetails": 4429,
      "38": 4430,
      "Ġvision": 4431,
      "Ġcorrespond": 4432,
      "Ġinterested": 4433,
      "Ġreaction": 4434,
      "Ġdro": 4435,
      "char": 4436,
      "Ġstage": 4437,
      "Ġquar": 4438,
      "Ġ189": 4439,
      "Ġremained": 4440,
      "Ġstatement": 4441,
      "Ġserver": 4442,
      "Ġsouthern": 4443,
      "ndrome": 4444,
      "Ġdim": 4445,
      "Ġlinks": 4446,
      "Ġgod": 4447,
      "ĠCO": 4448,
      "Ġstories": 4449,
      "ĠDem": 4450,
      "key": 4451,
      "Ġcoal": 4452,
      "iox": 4453,
      "Ġproposed": 4454,
      "Ġcombination": 4455,
      "ĠInformation": 4456,
      "Ġmessage": 4457,
      "ij": 4458,
      "rog": 4459,
      "ĠEv": 4460,
      "Ġspect": 4461,
      "Ġunf": 4462,
      "Ġserved": 4463,
      "Ġfields": 4464,
      "uses": 4465,
      "ĠFin": 4466,
      "Ġresource": 4467,
      "Ġassum": 4468,
      "Ġradiation": 4469,
      "Ġcampaign": 4470,
      "bed": 4471,
      "with": 4472,
      "Ġpages": 4473,
      "Ġeating": 4474,
      "ĠAlex": 4475,
      "ĠMil": 4476,
      "Ġsyn": 4477,
      "Ġmuscle": 4478,
      "ĠService": 4479,
      "Ġalle": 4480,
      "Ġhearing": 4481,
      "Ġrat": 4482,
      "Ġcontext": 4483,
      "Ġarticles": 4484,
      "Ġfriend": 4485,
      "ĠValley": 4486,
      "rant": 4487,
      "well": 4488,
      "ĠCivil": 4489,
      "ample": 4490,
      "Ġround": 4491,
      "Ġ80": 4492,
      "Ġinvolve": 4493,
      "See": 4494,
      "do": 4495,
      "yro": 4496,
      "Ġdoll": 4497,
      "amental": 4498,
      "ĠBay": 4499,
      "Ġinform": 4500,
      "Ġ185": 4501,
      "Ġfeature": 4502,
      "Ġsolid": 4503,
      "Ġletter": 4504,
      "36": 4505,
      "Ġnative": 4506,
      "urt": 4507,
      "ĠLife": 4508,
      "berg": 4509,
      "Ġoverall": 4510,
      "Ġexplain": 4511,
      "ĠPhys": 4512,
      "Ġbehavi": 4513,
      ".||": 4514,
      "New": 4515,
      "ux": 4516,
      "Ġesc": 4517,
      "Ġreached": 4518,
      "Ġspeech": 4519,
      "Ġexposed": 4520,
      "Ġantib": 4521,
      "Ġreturned": 4522,
      "ĠGeorge": 4523,
      "Ġconclud": 4524,
      "Ġfert": 4525,
      "raction": 4526,
      "ĠCath": 4527,
      "that": 4528,
      "Ġnote": 4529,
      "Ġpret": 4530,
      "Ġexperiment": 4531,
      "Ġpi": 4532,
      "esthetic": 4533,
      "ĠLear": 4534,
      "Ġship": 4535,
      "Ġperfect": 4536,
      "Ġrace": 4537,
      "Ġanyone": 4538,
      "Ġmemb": 4539,
      "tical": 4540,
      "Ġbattle": 4541,
      "Ġmale": 4542,
      "Ġhomes": 4543,
      "Ġisol": 4544,
      "uted": 4545,
      "ĠLa": 4546,
      "oviet": 4547,
      "Ġpolicies": 4548,
      "Ġdecided": 4549,
      "Ġdu": 4550,
      "Ġstudied": 4551,
      "rence": 4552,
      "Ġkept": 4553,
      "Ġ1990": 4554,
      "Ġreferred": 4555,
      "American": 4556,
      "75": 4557,
      "RI": 4558,
      "Ġsort": 4559,
      "Ġpip": 4560,
      "ĠHIV": 4561,
      "Ġsugar": 4562,
      "ĠDec": 4563,
      "ĠFore": 4564,
      "akers": 4565,
      "Ġupd": 4566,
      "Ġplanning": 4567,
      "Ġtemperatures": 4568,
      "west": 4569,
      "Ġmeant": 4570,
      "Ġexpression": 4571,
      "Ġfamous": 4572,
      "clop": 4573,
      "Ġfrequently": 4574,
      "Ġeggs": 4575,
      "gal": 4576,
      "ystem": 4577,
      "Ġleaves": 4578,
      "Ġauthors": 4579,
      "ĠEnergy": 4580,
      "Ġnotes": 4581,
      "ĠLabor": 4582,
      "Ġmathemat": 4583,
      "Ġoccurred": 4584,
      "Ġfailure": 4585,
      "Ġconsumption": 4586,
      "ixt": 4587,
      "arrow": 4588,
      "Ġgain": 4589,
      "ager": 4590,
      "Ġincome": 4591,
      "Ġelim": 4592,
      "Ġconnect": 4593,
      "Ġsquare": 4594,
      "wood": 4595,
      "Ġforced": 4596,
      "erences": 4597,
      "umber": 4598,
      "ĠWild": 4599,
      "Ġspent": 4600,
      "aped": 4601,
      "Ġapply": 4602,
      "Ġemail": 4603,
      "Ġproteins": 4604,
      "Ġextremely": 4605,
      "Ġmonitoring": 4606,
      "Many": 4607,
      "Ġsand": 4608,
      "Ġmit": 4609,
      "olved": 4610,
      "iring": 4611,
      "ĠPacific": 4612,
      "ĠGra": 4613,
      "ĠWhy": 4614,
      "ounced": 4615,
      "Ġperformed": 4616,
      "Ġreligion": 4617,
      "BC": 4618,
      "awn": 4619,
      "ĠIran": 4620,
      "oper": 4621,
      "ago": 4622,
      "Ġhelped": 4623,
      "Ġtrend": 4624,
      "Ġdescribe": 4625,
      "Ġimmune": 4626,
      "Ġsamples": 4627,
      "mit": 4628,
      "Ġfine": 4629,
      "Ġresistance": 4630,
      "That": 4631,
      "Ġsecret": 4632,
      "ĠConstitution": 4633,
      "Ġcounter": 4634,
      "Ġstrategies": 4635,
      "ĠMexico": 4636,
      "Sp": 4637,
      "gra": 4638,
      "Ġconstitution": 4639,
      "Ġdesp": 4640,
      "Ġdiscrim": 4641,
      "Ġclassroom": 4642,
      "ael": 4643,
      "ishes": 4644,
      "ellect": 4645,
      "ĠRights": 4646,
      "ensity": 4647,
      "Ġmilk": 4648,
      "Ġterrit": 4649,
      "ĠFranc": 4650,
      "Ġmachine": 4651,
      "ĠTechnology": 4652,
      "Be": 4653,
      "atically": 4654,
      "Ġcast": 4655,
      "Ġbond": 4656,
      "Ġeast": 4657,
      "ĠWomen": 4658,
      "what": 4659,
      "Ġprepared": 4660,
      "ĠCharles": 4661,
      "Ġplease": 4662,
      "othes": 4663,
      "ĠBer": 4664,
      "romos": 4665,
      "Ġyourself": 4666,
      "Ġbecoming": 4667,
      "Ġarchitect": 4668,
      "Ġsusp": 4669,
      "ĠEnvironmental": 4670,
      "kin": 4671,
      "uit": 4672,
      "Ġcere": 4673,
      "isation": 4674,
      "icial": 4675,
      "Ġliqu": 4676,
      "ĠArab": 4677,
      "Ġhear": 4678,
      "Ġarm": 4679,
      "Ġ35": 4680,
      "Ġoptions": 4681,
      "Ġinitial": 4682,
      "ping": 4683,
      "Ġwife": 4684,
      "ndom": 4685,
      "olute": 4686,
      "verty": 4687,
      "Ġelement": 4688,
      "itness": 4689,
      "Ġmere": 4690,
      "Ġmouth": 4691,
      "ĠFederal": 4692,
      "Ġrandom": 4693,
      "Ġsave": 4694,
      "Ġpoverty": 4695,
      "Ġscen": 4696,
      "mark": 4697,
      "rus": 4698,
      "Ġbill": 4699,
      "Ġconvers": 4700,
      "ĠProv": 4701,
      "Ġexpert": 4702,
      "Ġbrother": 4703,
      "Ġfinally": 4704,
      "Ġmorning": 4705,
      "Ġchallenges": 4706,
      "crib": 4707,
      "Ġfif": 4708,
      "icon": 4709,
      "raw": 4710,
      "ĠOver": 4711,
      "Ġgets": 4712,
      "Ġresulting": 4713,
      "Ġmarine": 4714,
      "Ġregarding": 4715,
      "met": 4716,
      "rans": 4717,
      "ĠMD": 4718,
      "uster": 4719,
      "Ġremember": 4720,
      "Ġ70": 4721,
      "Ġinvolves": 4722,
      "Ġhappen": 4723,
      "Ġlinked": 4724,
      "Ġviolence": 4725,
      "Ġprinciples": 4726,
      "64": 4727,
      "Ġple": 4728,
      "omic": 4729,
      "Ġstim": 4730,
      "Ġheard": 4731,
      "Ġcounty": 4732,
      "Ġsymbol": 4733,
      "CC": 4734,
      "Res": 4735,
      "zing": 4736,
      "Ġcris": 4737,
      "ĠCamb": 4738,
      "Ġstore": 4739,
      "orms": 4740,
      "Ġdetect": 4741,
      "Ġshowing": 4742,
      "ĠAtlant": 4743,
      "Ġcausing": 4744,
      "Ġsaying": 4745,
      "Ġletters": 4746,
      "ĠFoundation": 4747,
      "Ġphenomen": 4748,
      "ero": 4749,
      "Ġthick": 4750,
      "Ġnations": 4751,
      "ĠJer": 4752,
      "Ġteach": 4753,
      "ĠKe": 4754,
      "Ġfinding": 4755,
      "Ġ90": 4756,
      "Ġelection": 4757,
      "Ġwanted": 4758,
      "Ġmotion": 4759,
      "Ġpreviously": 4760,
      "yn": 4761,
      "utive": 4762,
      "ĠPM": 4763,
      "Ġneu": 4764,
      "Ġshut": 4765,
      "Ġcomprehens": 4766,
      "Ġprefer": 4767,
      "Ġstarting": 4768,
      "ĠCentral": 4769,
      "Ġcollabor": 4770,
      "Ġvictim": 4771,
      "Ġlatter": 4772,
      "ĠCast": 4773,
      "istan": 4774,
      "ĠReview": 4775,
      "which": 4776,
      "Ġsignificantly": 4777,
      "Ġdiscussion": 4778,
      "oice": 4779,
      "Ġreality": 4780,
      "Ġnav": 4781,
      "umn": 4782,
      "Ġcontaining": 4783,
      "Ġcreation": 4784,
      "Ġadvice": 4785,
      "Ġdram": 4786,
      "iling": 4787,
      "Ġgraph": 4788,
      "ĠForce": 4789,
      "Ġleader": 4790,
      "Ġdigital": 4791,
      "Ġdiagnosis": 4792,
      "Ġbottom": 4793,
      "ĠSl": 4794,
      "Ġintended": 4795,
      "Ġappoint": 4796,
      "ributed": 4797,
      "aughter": 4798,
      "Ġchallenge": 4799,
      "ĠGreek": 4800,
      "ĠSoviet": 4801,
      "Ġjustice": 4802,
      "Ġmetal": 4803,
      "Ġbiological": 4804,
      "Ġrecorded": 4805,
      "ĠLouis": 4806,
      "ares": 4807,
      "lar": 4808,
      "Ġsav": 4809,
      "Ġsalt": 4810,
      "Ġded": 4811,
      "Ġgal": 4812,
      "ĠSub": 4813,
      "ĠDon": 4814,
      "ception": 4815,
      "pective": 4816,
      "Ġgarden": 4817,
      "ĠFlorida": 4818,
      "pre": 4819,
      "point": 4820,
      "uild": 4821,
      "olid": 4822,
      "ching": 4823,
      "ĠMiddle": 4824,
      "Ġexcess": 4825,
      "ĠLake": 4826,
      "Ġexperts": 4827,
      "Ġgrand": 4828,
      "Ġbackground": 4829,
      "Ġchanging": 4830,
      "Ġabsor": 4831,
      "cers": 4832,
      "cest": 4833,
      "rum": 4834,
      "Ġburn": 4835,
      "iled": 4836,
      "ĠUK": 4837,
      "Ġunits": 4838,
      "rick": 4839,
      "Ġextent": 4840,
      "Ġcharge": 4841,
      "Ġreplace": 4842,
      "Ġdrinking": 4843,
      "Ġacademic": 4844,
      "ĠRobert": 4845,
      "Most": 4846,
      "ilit": 4847,
      "ĠNatural": 4848,
      "Ġcontem": 4849,
      "ibl": 4850,
      "ishing": 4851,
      "Ġmostly": 4852,
      "Ġdirector": 4853,
      "Ġauthorities": 4854,
      "Ġamounts": 4855,
      "Ġbow": 4856,
      "Ġmamm": 4857,
      "add": 4858,
      "Ġju": 4859,
      "ructure": 4860,
      "Ġlargely": 4861,
      "ĠCarol": 4862,
      "Ab": 4863,
      "inations": 4864,
      "icit": 4865,
      "illing": 4866,
      "Ġnewsp": 4867,
      "Ġattitude": 4868,
      "ĠIndians": 4869,
      "ĠCancer": 4870,
      "ĠQue": 4871,
      "Ġsubstant": 4872,
      "Ġhabitat": 4873,
      "Ġbalance": 4874,
      "Ġmaximum": 4875,
      "astern": 4876,
      "Ġstars": 4877,
      "ĠLatin": 4878,
      "Ġcharacteristics": 4879,
      "RO": 4880,
      "bal": 4881,
      "works": 4882,
      "Ġpaid": 4883,
      "Ġinternal": 4884,
      "ĠMem": 4885,
      "ĠWork": 4886,
      "Ġtechnique": 4887,
      "ĠIII": 4888,
      "Ġdegrees": 4889,
      "Ġrecommended": 4890,
      "Ġdefinition": 4891,
      "Ġinstitutions": 4892,
      "Ġdrop": 4893,
      "uration": 4894,
      "urance": 4895,
      "Ġspot": 4896,
      "Ġcombined": 4897,
      "Ġcircum": 4898,
      "Although": 4899,
      "comm": 4900,
      "Ġtrou": 4901,
      "lements": 4902,
      "Ġgar": 4903,
      "ĠMat": 4904,
      "ĠJud": 4905,
      "Ġcompleted": 4906,
      "Ġauthority": 4907,
      "Ġcycle": 4908,
      "Ġadvantage": 4909,
      "Cl": 4910,
      "mal": 4911,
      "tes": 4912,
      "Ġban": 4913,
      "ented": 4914,
      "Ġstyle": 4915,
      "Ġitems": 4916,
      "ĠPenn": 4917,
      "elled": 4918,
      "Ġ45": 4919,
      "Ġ1998": 4920,
      "Ġbuildings": 4921,
      "Ġoperation": 4922,
      "Ġemergency": 4923,
      "Ġcomponents": 4924,
      "Ġrenew": 4925,
      "Ġ31": 4926,
      "ossible": 4927,
      "Ġdiscover": 4928,
      "Ġcontinues": 4929,
      "ĠCommittee": 4930,
      "Ġguide": 4931,
      "39": 4932,
      "SI": 4933,
      "ST": 4934,
      "Sh": 4935,
      "roph": 4936,
      "igen": 4937,
      "ams": 4938,
      "ĠBible": 4939,
      "Ġdiscovery": 4940,
      "Ġfiles": 4941,
      "idelines": 4942,
      "49": 4943,
      "No": 4944,
      "Ġcovered": 4945,
      "ĠTur": 4946,
      "Ġonto": 4947,
      "ĠUp": 4948,
      "Ġobvious": 4949,
      "Ġschem": 4950,
      "Ġready": 4951,
      "Ġrisks": 4952,
      "Ġoperating": 4953,
      "Ġdocuments": 4954,
      "Ġexperienced": 4955,
      "Ġpregnancy": 4956,
      "Ġaspects": 4957,
      "Ġdivided": 4958,
      "Ġiron": 4959,
      "Ġwestern": 4960,
      "ĠToday": 4961,
      "Ġappeared": 4962,
      "Ġfundamental": 4963,
      "ca": 4964,
      "inf": 4965,
      "Ġsnow": 4966,
      "alle": 4967,
      "Ġstem": 4968,
      "Ġperman": 4969,
      "Ġmanner": 4970,
      "ĠSte": 4971,
      "Ġgoals": 4972,
      "Ġgovernments": 4973,
      "Ġsupported": 4974,
      "Ġaircraft": 4975,
      "Ġsuggested": 4976,
      "ĠOrgan": 4977,
      "76": 4978,
      "Ġtask": 4979,
      "Ġsen": 4980,
      "Ġinh": 4981,
      "ingly": 4982,
      "Ġhospital": 4983,
      "change": 4984,
      "ogue": 4985,
      "Ġkil": 4986,
      "Ġdiss": 4987,
      "ĠColumb": 4988,
      "Ġeasier": 4989,
      "Ġclaims": 4990,
      "ĠJapanese": 4991,
      "Ġfarmers": 4992,
      "Ġprices": 4993,
      "ĠOffice": 4994,
      "atabase": 4995,
      "Other": 4996,
      "Ġpun": 4997,
      "ulating": 4998,
      "Ġconvent": 4999,
      "ĠElect": 5000,
      "Ġcenturies": 5001,
      "Ġprimarily": 5002,
      "lamm": 5003,
      "Ġrequirements": 5004,
      "ĠTwo": 5005,
      "Ġtour": 5006,
      "Ġfib": 5007,
      "Ġhour": 5008,
      "ĠAN": 5009,
      "ĠDef": 5010,
      "ĠFood": 5011,
      "Ġconsult": 5012,
      "Ġdecisions": 5013,
      "Ġconnected": 5014,
      "board": 5015,
      "100": 5016,
      "vis": 5017,
      "Ġther": 5018,
      "Ġincorpor": 5019,
      "asses": 5020,
      "Ġremove": 5021,
      "Ġdepos": 5022,
      "Ġorganisms": 5023,
      "LE": 5024,
      "ini": 5025,
      "Ġhop": 5026,
      "ĠMr": 5027,
      "Ġpieces": 5028,
      "tle": 5029,
      "ĠGal": 5030,
      "Ġconsists": 5031,
      "Ġindicate": 5032,
      "Ġparticipants": 5033,
      "Ġhousehold": 5034,
      "Ġconcepts": 5035,
      "Ġsample": 5036,
      "care": 5037,
      "itage": 5038,
      "Ġgames": 5039,
      "ĠDist": 5040,
      "place": 5041,
      "Ġclos": 5042,
      "Ġoutput": 5043,
      "Ġprocessing": 5044,
      "ĠHistor": 5045,
      "Ġcore": 5046,
      "Ġpil": 5047,
      "ĠEconom": 5048,
      "Ġraised": 5049,
      "rolog": 5050,
      "Ġimproved": 5051,
      "According": 5052,
      "Now": 5053,
      "ĠGroup": 5054,
      "Ġclim": 5055,
      "Ġoffered": 5056,
      "ĠScient": 5057,
      "ortunately": 5058,
      "ĠRussian": 5059,
      "37": 5060,
      "nel": 5061,
      "Ġhus": 5062,
      "Ġisland": 5063,
      "Ġsufficient": 5064,
      "ĠNav": 5065,
      "ĠOld": 5066,
      "Ġintellect": 5067,
      "Ġapparent": 5068,
      "Ġtitle": 5069,
      "iatric": 5070,
      "rat": 5071,
      "Ã¶": 5072,
      "Ġtun": 5073,
      "Ġfal": 5074,
      "Ġdial": 5075,
      "Ġtested": 5076,
      "Ġexplore": 5077,
      "Ġinjury": 5078,
      "Ġbegins": 5079,
      "ĠHenry": 5080,
      "ita": 5081,
      "Ġinput": 5082,
      "ĠSal": 5083,
      "ĠBro": 5084,
      "Ġexcell": 5085,
      "ears": 5086,
      "Ġtrig": 5087,
      "Ġrecognized": 5088,
      "Ġhundreds": 5089,
      "Ġexactly": 5090,
      "cript": 5091,
      "Ġsin": 5092,
      "Ġsong": 5093,
      "Ġbright": 5094,
      "ĠSum": 5095,
      "umin": 5096,
      "Ġvast": 5097,
      "obe": 5098,
      "Ġgreatest": 5099,
      "Ġhappens": 5100,
      "Ġfailed": 5101,
      "Ġfigures": 5102,
      "Ġrelationships": 5103,
      "Ġconflict": 5104,
      "ĠAcademy": 5105,
      "AP": 5106,
      "vision": 5107,
      "ĠBel": 5108,
      "Ġchart": 5109,
      "enses": 5110,
      "Ġinfections": 5111,
      "Ġknew": 5112,
      "Ġinterf": 5113,
      "Ġdistrict": 5114,
      "Ġdistingu": 5115,
      "iveness": 5116,
      "Ġpromote": 5117,
      "down": 5118,
      "ih": 5119,
      "rich": 5120,
      "ses": 5121,
      "oral": 5122,
      "ulum": 5123,
      "resents": 5124,
      "osen": 5125,
      "cyclop": 5126,
      "Ġ188": 5127,
      "Ġreducing": 5128,
      "Ġidentity": 5129,
      "Ġexistence": 5130,
      "Ġvolume": 5131,
      "nic": 5132,
      "pat": 5133,
      "Ġband": 5134,
      "Ġnit": 5135,
      "ĠSom": 5136,
      "Ġotherwise": 5137,
      "Ġexplan": 5138,
      "Ġtroops": 5139,
      "ĠMiG": 5140,
      "48": 5141,
      "More": 5142,
      "ya": 5143,
      "Ġpick": 5144,
      "Ġsyndrome": 5145,
      "Ġeffectively": 5146,
      "reed": 5147,
      "Ġfle": 5148,
      "ague": 5149,
      "clusion": 5150,
      "Ġallowing": 5151,
      "espite": 5152,
      "Ġmarriage": 5153,
      "Ġconcerned": 5154,
      "Ġportion": 5155,
      "Ġstraight": 5156,
      "Ġslightly": 5157,
      "chers": 5158,
      "ii": 5159,
      "rust": 5160,
      "Ġaesthetic": 5161,
      "ancing": 5162,
      "Ġgall": 5163,
      "Ġstation": 5164,
      "Ġkm": 5165,
      "ĠThomas": 5166,
      "Ġtwenty": 5167,
      "ieties": 5168,
      "ĠArmy": 5169,
      "Ġinterests": 5170,
      "ifying": 5171,
      "Ġfacilities": 5172,
      "Ġutil": 5173,
      "Ġjobs": 5174,
      "Ġagricultural": 5175,
      "ĠCatholic": 5176,
      "ball": 5177,
      "rating": 5178,
      "enced": 5179,
      "Ġhorm": 5180,
      "idity": 5181,
      "ĠCap": 5182,
      "iform": 5183,
      "ĠPub": 5184,
      "osite": 5185,
      "Ġnotice": 5186,
      "Ġspecifically": 5187,
      "Ġviews": 5188,
      "ĠSmith": 5189,
      "Ġdestroyed": 5190,
      "col": 5191,
      "ta": 5192,
      "Ġped": 5193,
      "Ġdisapp": 5194,
      "Ġtrust": 5195,
      "Ġsurpris": 5196,
      "Ġ1995": 5197,
      "Ġorganic": 5198,
      "Ġequival": 5199,
      "Ġcollege": 5200,
      "ĠCompany": 5201,
      "Ġvillage": 5202,
      "bi": 5203,
      "ania": 5204,
      "Ġhit": 5205,
      "state": 5206,
      "ĠMark": 5207,
      "Ġwealth": 5208,
      "Ġroof": 5209,
      "Ġcritic": 5210,
      "ĠChev": 5211,
      "Ġprocedure": 5212,
      "Ġdangerous": 5213,
      "Ġspiritual": 5214,
      "Ġadjust": 5215,
      "yroid": 5216,
      "OT": 5217,
      "ville": 5218,
      "Ã¡": 5219,
      "etics": 5220,
      "ĠBas": 5221,
      "Ġshot": 5222,
      "Ġintellig": 5223,
      "Ġallerg": 5224,
      "standing": 5225,
      "going": 5226,
      "Ġaccepted": 5227,
      "kins": 5228,
      "tra": 5229,
      "Ġfort": 5230,
      "ĠOp": 5231,
      "Ġcommit": 5232,
      "rows": 5233,
      "Ġproperly": 5234,
      "Ġlooks": 5235,
      "Ġpollution": 5236,
      "Ġmentioned": 5237,
      "inter": 5238,
      "Ġfly": 5239,
      "ective": 5240,
      "ĠWind": 5241,
      "ĠRad": 5242,
      "ĠEmp": 5243,
      "ĠLet": 5244,
      "Ġleaving": 5245,
      "Ġspl": 5246,
      "Ġarms": 5247,
      "Ġjur": 5248,
      "achuse": 5249,
      "ĠStand": 5250,
      "Ġmeasured": 5251,
      "Ġ1980": 5252,
      "Ġabsolute": 5253,
      "However": 5254,
      "Ġoriginally": 5255,
      "Ġbed": 5256,
      "Ġfol": 5257,
      "ĠPers": 5258,
      "opy": 5259,
      "Ġexternal": 5260,
      "Ġcontinuous": 5261,
      "rapy": 5262,
      "idden": 5263,
      "Ġwildlife": 5264,
      "Ġelectrical": 5265,
      "DF": 5266,
      "iated": 5267,
      "ras": 5268,
      "tts": 5269,
      "Ġwet": 5270,
      "Ġfrag": 5271,
      "stood": 5272,
      "Ġprohib": 5273,
      "pping": 5274,
      "aker": 5275,
      "Ġparties": 5276,
      "Ġprepar": 5277,
      "Ġsetting": 5278,
      "Ġ1997": 5279,
      "ĠReport": 5280,
      "Ġlaboratory": 5281,
      "achusetts": 5282,
      "Ind": 5283,
      "celer": 5284,
      "ĠPet": 5285,
      "Ġclasses": 5286,
      "Ġadvanced": 5287,
      "Ġdomestic": 5288,
      "Ġencourage": 5289,
      "gment": 5290,
      "vity": 5291,
      "Ġsend": 5292,
      "Ġwww": 5293,
      "Ġbrief": 5294,
      "Ġdie": 5295,
      "otes": 5296,
      "Ġstored": 5297,
      "amil": 5298,
      "ivation": 5299,
      "unk": 5300,
      "Ġowners": 5301,
      "Ġtrials": 5302,
      "Ġconcern": 5303,
      "ĠStudents": 5304,
      "Ġrepeated": 5305,
      "olars": 5306,
      "ĠPsych": 5307,
      "ĠBen": 5308,
      "Ġbuy": 5309,
      "Ġtechnical": 5310,
      "Ġelectronic": 5311,
      "Ġdetailed": 5312,
      "Ġdynam": 5313,
      "Ġsequence": 5314,
      "sembly": 5315,
      "Ġneighbor": 5316,
      "Ġbeautiful": 5317,
      "31": 5318,
      "46": 5319,
      "AD": 5320,
      "onic": 5321,
      "Ġfelt": 5322,
      "Ġreduction": 5323,
      "Ġlooked": 5324,
      "Ġeastern": 5325,
      "Ġbird": 5326,
      "Ġimpacts": 5327,
      "Ġcollected": 5328,
      "Ġfamiliar": 5329,
      ".'": 5330,
      "Here": 5331,
      "Ġtiny": 5332,
      "Ġfell": 5333,
      "Ġdust": 5334,
      "racy": 5335,
      "Ġbutter": 5336,
      "Ġ300": 5337,
      "Ġrepresents": 5338,
      "Ġtopics": 5339,
      "Ġengineering": 5340,
      "Ġpurposes": 5341,
      "Ġcontrolled": 5342,
      "De": 5343,
      "During": 5344,
      "EL": 5345,
      "normal": 5346,
      "tion": 5347,
      "ĠBudd": 5348,
      "âĢĿ.": 5349,
      "ĠVict": 5350,
      "Ġattacks": 5351,
      "Ġcalls": 5352,
      "Ġfacts": 5353,
      "Ġadvoc": 5354,
      "Ġadvance": 5355,
      "Ġdescription": 5356,
      "ĠSea": 5357,
      "Ġapproaches": 5358,
      "Ġtried": 5359,
      "Ġtopic": 5360,
      "Ġrelevant": 5361,
      "Ġera": 5362,
      "Ġmulti": 5363,
      "Ġdouble": 5364,
      "CO": 5365,
      "itud": 5366,
      "iced": 5367,
      "emia": 5368,
      "active": 5369,
      "Ġerror": 5370,
      "Ġmanufacture": 5371,
      "Ġrapidly": 5372,
      "Ġcredit": 5373,
      "lers": 5374,
      "rolet": 5375,
      "Ġthin": 5376,
      "oln": 5377,
      "ĠMont": 5378,
      "ĠFre": 5379,
      "ĠFort": 5380,
      "Ġrough": 5381,
      "ĠLibrary": 5382,
      "Ġresponsibility": 5383,
      "Ġconcerns": 5384,
      "Ġsubstance": 5385,
      "Ġrevolution": 5386,
      "kes": 5387,
      "ĠTimes": 5388,
      "Ġyellow": 5389,
      "ĠPower": 5390,
      "ategy": 5391,
      "inding": 5392,
      "Ġformal": 5393,
      "Ġstrategy": 5394,
      "Ġgoods": 5395,
      "comp": 5396,
      "Ġbrown": 5397,
      "Ġprofession": 5398,
      "Ġmillions": 5399,
      "Ġwalls": 5400,
      "ki": 5401,
      "ship": 5402,
      "Ġcamer": 5403,
      "Ġnan": 5404,
      "Ġnine": 5405,
      "ĠBook": 5406,
      "ĠBrown": 5407,
      "Ġcapable": 5408,
      "Ġexperiments": 5409,
      "Ġsector": 5410,
      "Ġwonder": 5411,
      "Ġstated": 5412,
      "ĠPri": 5413,
      "Ġrural": 5414,
      "oster": 5415,
      "Ġcolors": 5416,
      "Ġroot": 5417,
      "Ġprotected": 5418,
      "Ġorganized": 5419,
      "ĠColor": 5420,
      "Ġnutrition": 5421,
      "Ġpregnant": 5422,
      "ocratic": 5423,
      "Ġlik": 5424,
      "otic": 5425,
      "irty": 5426,
      "ada": 5427,
      "Ġsupplies": 5428,
      "Ġformation": 5429,
      "Ġseek": 5430,
      "Ġ1970": 5431,
      "Ġwarming": 5432,
      "Ġcrisis": 5433,
      "heim": 5434,
      "Ġpure": 5435,
      "Ġancest": 5436,
      "ĠHol": 5437,
      "ache": 5438,
      "ĠOnce": 5439,
      "Ġlands": 5440,
      "Ġ<": 5441,
      "Ġtail": 5442,
      "Ġpray": 5443,
      "Ġmos": 5444,
      "ompl": 5445,
      "Ġnarrow": 5446,
      "ĠDan": 5447,
      "Ġcloth": 5448,
      "Ġunless": 5449,
      "Ġexpensive": 5450,
      "ipped": 5451,
      "Ġexperiences": 5452,
      "Ġassessment": 5453,
      "war": 5454,
      "zen": 5455,
      "inating": 5456,
      "Ġcards": 5457,
      "Ġfaster": 5458,
      "ĠLeg": 5459,
      "Ġ1993": 5460,
      "ĠConn": 5461,
      "Ġkinds": 5462,
      "Ġsubjects": 5463,
      "Ġclosely": 5464,
      "Ġincreasingly": 5465,
      "Ġprocedures": 5466,
      "47": 5467,
      "uing": 5468,
      "stream": 5469,
      "ĠPeter": 5470,
      "Ġrub": 5471,
      "Ġtransform": 5472,
      "Ġfrequency": 5473,
      "Ġdogs": 5474,
      "RC": 5475,
      "ãģ": 5476,
      "inity": 5477,
      "Ġod": 5478,
      "Ġdut": 5479,
      "Ġnarr": 5480,
      "ĠSou": 5481,
      "ĠSuch": 5482,
      "Ġhaz": 5483,
      "ĠNorthern": 5484,
      "agues": 5485,
      "Ġsky": 5486,
      "rison": 5487,
      "azine": 5488,
      "Ġplayed": 5489,
      "Ġmolecules": 5490,
      "Ġadopted": 5491,
      "aturally": 5492,
      "Ġsustainable": 5493,
      "Ġcandid": 5494,
      "05": 5495,
      "ded": 5496,
      "Ġborder": 5497,
      "ario": 5498,
      "heric": 5499,
      "ĠJose": 5500,
      "Ġplastic": 5501,
      "Ġregional": 5502,
      "Ġdepth": 5503,
      "Ġpaint": 5504,
      "Ġhyper": 5505,
      "Ġmoist": 5506,
      "last": 5507,
      "liam": 5508,
      "sen": 5509,
      "Ġax": 5510,
      "Ġmaster": 5511,
      "Ġliver": 5512,
      "ĠST": 5513,
      "ĠMa": 5514,
      "ĠBoth": 5515,
      "Ġheight": 5516,
      "osystem": 5517,
      "ĠDiv": 5518,
      "oston": 5519,
      "Ġtraffic": 5520,
      "example": 5521,
      "ĠArctic": 5522,
      "Ġhappened": 5523,
      "Ġmassive": 5524,
      "ĠMassachusetts": 5525,
      "long": 5526,
      "inet": 5527,
      "inant": 5528,
      "Ġanx": 5529,
      "ĠDise": 5530,
      "apes": 5531,
      "Ġagency": 5532,
      "Ġphase": 5533,
      "Ġparticles": 5534,
      "Ġtypical": 5535,
      "ĠAtt": 5536,
      "ictionary": 5537,
      "ĠRussia": 5538,
      "Ġfossil": 5539,
      "Ġmembrane": 5540,
      "inent": 5541,
      "eria": 5542,
      "Ġbones": 5543,
      "Ġfold": 5544,
      "ĠBi": 5545,
      "ĠLong": 5546,
      "Ġexpressed": 5547,
      "Ġdecade": 5548,
      "Ġdepending": 5549,
      "Ġcertainly": 5550,
      "Ġfunding": 5551,
      "ĠPeace": 5552,
      "ĠMichael": 5553,
      "Ġlatest": 5554,
      "Ġdespite": 5555,
      "'m": 5556,
      "Gen": 5557,
      "Ġ#": 5558,
      "Ġsides": 5559,
      "itter": 5560,
      "Ġpestic": 5561,
      "amily": 5562,
      "atever": 5563,
      "ĠBa": 5564,
      "ĠHel": 5565,
      "Ġcomment": 5566,
      "ĠChic": 5567,
      "ĠSciences": 5568,
      "Ġurban": 5569,
      "ĠCorps": 5570,
      "Ġnormally": 5571,
      "Ġliquid": 5572,
      "atform": 5573,
      "alian": 5574,
      "Ġlas": 5575,
      "ifies": 5576,
      "ogle": 5577,
      "Ġclosed": 5578,
      "Ġacts": 5579,
      "Ġacceler": 5580,
      "Ġsubsequ": 5581,
      "Ġsurvival": 5582,
      "pidem": 5583,
      "Ġprecise": 5584,
      "Ġprinciple": 5585,
      "ĠKorea": 5586,
      "Ġdoubt": 5587,
      "ĠWord": 5588,
      "ĠDar": 5589,
      "Ġweap": 5590,
      "Ġlandsc": 5591,
      "ĠSecurity": 5592,
      "Ġsurrounding": 5593,
      "500": 5594,
      "PS": 5595,
      "ooth": 5596,
      "Ġgrown": 5597,
      "abil": 5598,
      "Ġchick": 5599,
      "ureau": 5600,
      "ework": 5601,
      "aks": 5602,
      "Ġflat": 5603,
      "Ġpossibility": 5604,
      "Ġissued": 5605,
      "ĠTherefore": 5606,
      "Ġmovements": 5607,
      "Ġcomputers": 5608,
      "Ġdiscussed": 5609,
      "Ġanswers": 5610,
      "Ġintellectual": 5611,
      "ny": 5612,
      "Ġcrim": 5613,
      "orph": 5614,
      "Ġfirm": 5615,
      "Ġdaughter": 5616,
      "Ġdoctors": 5617,
      "Ġarrest": 5618,
      "Ġimpossible": 5619,
      "cience": 5620,
      "Ġrelation": 5621,
      "exp": 5622,
      "Ġfounded": 5623,
      "ĠAnother": 5624,
      "Ġperiods": 5625,
      "brew": 5626,
      "bing": 5627,
      "cel": 5628,
      "ĠMo": 5629,
      "Ġ36": 5630,
      "ĠYet": 5631,
      "Ġflight": 5632,
      "Ġfloor": 5633,
      "inson": 5634,
      "Ġinstruction": 5635,
      "Ġmainly": 5636,
      "Ġpractical": 5637,
      "Ġlaun": 5638,
      "Ġemployment": 5639,
      "ĠSecond": 5640,
      "Ġobtained": 5641,
      "ĠVietnam": 5642,
      "Ġhusband": 5643,
      "34": 5644,
      "reci": 5645,
      "Ġmist": 5646,
      "rot": 5647,
      "Ġgun": 5648,
      "ĠHall": 5649,
      "reatment": 5650,
      "Ġrecy": 5651,
      "Ġtwice": 5652,
      "Ġphone": 5653,
      "Ġpoet": 5654,
      "Ġattached": 5655,
      "Ġminimum": 5656,
      "ercury": 5657,
      "Ġsatell": 5658,
      "uable": 5659,
      "Ġsounds": 5660,
      "ora": 5661,
      "Ġreject": 5662,
      "ston": 5663,
      "ĠTor": 5664,
      "vert": 5665,
      "Ġvul": 5666,
      "agers": 5667,
      "Ġdiscipl": 5668,
      "Ġproducing": 5669,
      "ĠHebrew": 5670,
      "Ġleads": 5671,
      "ĠSpanish": 5672,
      "Ġbroken": 5673,
      "ognitive": 5674,
      "ĠCanadian": 5675,
      "Ġenemy": 5676,
      "Ġdiscrimination": 5677,
      "55": 5678,
      "cons": 5679,
      "ka": 5680,
      "ĠÃ": 5681,
      "Ġfit": 5682,
      "arp": 5683,
      "icians": 5684,
      "ĠIll": 5685,
      "osal": 5686,
      "ava": 5687,
      "Ġexplained": 5688,
      "Ġelected": 5689,
      "Ġgreatly": 5690,
      "Ġlimits": 5691,
      "Ġobservations": 5692,
      "Ġthousand": 5693,
      "unteers": 5694,
      "roke": 5695,
      "olit": 5696,
      "ĠAri": 5697,
      "ĠHome": 5698,
      "Ġsuc": 5699,
      "ĠNature": 5700,
      "Ġshared": 5701,
      "Ġinstall": 5702,
      "Ġpossess": 5703,
      "Ġopened": 5704,
      "Ġappearance": 5705,
      "Ġflowers": 5706,
      "Ġselected": 5707,
      "Ġhouses": 5708,
      "03": 5709,
      "Con": 5710,
      "Ġ>": 5711,
      "olf": 5712,
      "ĠMP": 5713,
      "ĠPost": 5714,
      "Ġagencies": 5715,
      "Ġphr": 5716,
      "Ġlanguages": 5717,
      "Ġefficiency": 5718,
      "Ġcouple": 5719,
      "Ġphysician": 5720,
      "liament": 5721,
      "HO": 5722,
      "avery": 5723,
      "greg": 5724,
      "iate": 5725,
      "no": 5726,
      "inction": 5727,
      "Ġflex": 5728,
      "ican": 5729,
      "ĠNations": 5730,
      "Ġaccompl": 5731,
      "Ġhelping": 5732,
      "Ġpolitics": 5733,
      "Ġprompt": 5734,
      "Ġphotograph": 5735,
      "Ġastron": 5736,
      "ĠProfessor": 5737,
      "02": 5738,
      "ION": 5739,
      "Note": 5740,
      "Our": 5741,
      "Ġoption": 5742,
      "Ġsick": 5743,
      "Ġmort": 5744,
      "Ġdatabase": 5745,
      "olve": 5746,
      "ĠAD": 5747,
      "Ġabuse": 5748,
      "ĠOx": 5749,
      "Ġresulted": 5750,
      "Ġmuscles": 5751,
      "aska": 5752,
      "Ġmalaria": 5753,
      "such": 5754,
      "Ġfing": 5755,
      "ctive": 5756,
      "ested": 5757,
      "ĠThose": 5758,
      "anged": 5759,
      "Ġdecline": 5760,
      "Ġshel": 5761,
      "Ġcareer": 5762,
      "Ġrepresented": 5763,
      "Ġsatis": 5764,
      "Ġtransmission": 5765,
      "Ġcomponent": 5766,
      "Ã¼": 5767,
      "Äģ": 5768,
      "ĠWell": 5769,
      "Ġvital": 5770,
      "ĠEth": 5771,
      "Ġselection": 5772,
      "Ġenforce": 5773,
      "Ġresist": 5774,
      "Ġresidents": 5775,
      "Ġunlike": 5776,
      "Ġsubs": 5777,
      "Ġmedium": 5778,
      "Ġextract": 5779,
      "Ġaffects": 5780,
      "Ġharvest": 5781,
      "Ġvegetables": 5782,
      "cher": 5783,
      "Ġindu": 5784,
      "Ġmuseum": 5785,
      "Ġtow": 5786,
      "oting": 5787,
      "ĠBot": 5788,
      "ĠFurther": 5789,
      "Ġadequ": 5790,
      "cium": 5791,
      "Ġformat": 5792,
      "incoln": 5793,
      "Ġearthqu": 5794,
      "Ġindependence": 5795,
      "Ġcomprehensive": 5796,
      "ĠEmpire": 5797,
      "ean": 5798,
      "Ġtons": 5799,
      "Ġwire": 5800,
      "urd": 5801,
      "Ġhem": 5802,
      "ocation": 5803,
      "Ġaccomp": 5804,
      "oven": 5805,
      "athy": 5806,
      "Ġextensive": 5807,
      "ĠAnn": 5808,
      "Ġtreatments": 5809,
      "Ġlayers": 5810,
      "Ġjoined": 5811,
      "ĠFrancisc": 5812,
      "Ġtheories": 5813,
      "ĠCa": 5814,
      "ulin": 5815,
      "acher": 5816,
      "ĠStat": 5817,
      "luding": 5818,
      "Ġindeed": 5819,
      "Ġworldwide": 5820,
      "Ġreplaced": 5821,
      "Ġentirely": 5822,
      "Ġconcentration": 5823,
      "stein": 5824,
      "CD": 5825,
      "UN": 5826,
      "ding": 5827,
      "een": 5828,
      "from": 5829,
      "Ġgone": 5830,
      "Ġprem": 5831,
      "Ġassistance": 5832,
      "Ġcrew": 5833,
      "Ġ1994": 5834,
      "ĠExp": 5835,
      "Ġnecessarily": 5836,
      "Ġlaunch": 5837,
      "Ġfeeling": 5838,
      "Ġsurvive": 5839,
      "Ġpictures": 5840,
      "Ġadministration": 5841,
      "Ġtumor": 5842,
      "eor": 5843,
      "Ġcart": 5844,
      "ĠBC": 5845,
      "ĠEvery": 5846,
      "ĠGr": 5847,
      "oking": 5848,
      "Ġfollows": 5849,
      "Ġexplains": 5850,
      "Ġpotentially": 5851,
      "Another": 5852,
      "ĠFrank": 5853,
      "Ġimmediate": 5854,
      "Ġargument": 5855,
      "Ġgalax": 5856,
      "EM": 5857,
      "know": 5858,
      "Ġinher": 5859,
      "ansion": 5860,
      "Ġunderstood": 5861,
      "Ġregist": 5862,
      "ropical": 5863,
      "ĠGlobal": 5864,
      "Ġemotional": 5865,
      "ĠColumbia": 5866,
      "rary": 5867,
      "heast": 5868,
      "Ġpra": 5869,
      "Ġtoler": 5870,
      "Ġlibrary": 5871,
      "ĠAp": 5872,
      "ĠLand": 5873,
      "Ġperce": 5874,
      "Ġteeth": 5875,
      "Ġinfected": 5876,
      "riculum": 5877,
      "Ġblog": 5878,
      "erman": 5879,
      "venue": 5880,
      "Ġlisted": 5881,
      "Ġsensitive": 5882,
      "Ġhorse": 5883,
      "Ġkidney": 5884,
      "Ġopinion": 5885,
      "ĠCarolina": 5886,
      "Ġpermanent": 5887,
      "88": 5888,
      "eper": 5889,
      "Ġlies": 5890,
      "ima": 5891,
      "ĠBoston": 5892,
      "ĠRem": 5893,
      "ĠLab": 5894,
      "Ġarts": 5895,
      "Ġjour": 5896,
      "Ġsignal": 5897,
      "Ġprevention": 5898,
      "Ġslowly": 5899,
      "Ġnutri": 5900,
      "Ġcrops": 5901,
      "rint": 5902,
      "Ġbud": 5903,
      "Ġbatter": 5904,
      "Ġnaturally": 5905,
      "ĠGood": 5906,
      "ĠOcean": 5907,
      "eck": 5908,
      "Ġsupposed": 5909,
      "Ġrefers": 5910,
      "Ġvisible": 5911,
      "ĠAdminist": 5912,
      "Ġvector": 5913,
      "Ġmarked": 5914,
      "Ġkeeping": 5915,
      "Ġemployees": 5916,
      "Ġexcellent": 5917,
      ".]": 5918,
      "IA": 5919,
      "TM": 5920,
      "orrow": 5921,
      "ĠBet": 5922,
      "iest": 5923,
      "ĠGrand": 5924,
      "Ġspend": 5925,
      "Ġperspective": 5926,
      "iodiversity": 5927,
      "Ġfluid": 5928,
      "ĠStudies": 5929,
      "Ġcircumst": 5930,
      "cyclopedia": 5931,
      "01": 5932,
      "44": 5933,
      "Te": 5934,
      "field": 5935,
      "organ": 5936,
      "ione": 5937,
      "asure": 5938,
      "ĠTHE": 5939,
      "Ġunknown": 5940,
      "Ġinflamm": 5941,
      "vironments": 5942,
      "Ġoccasion": 5943,
      "Ġbiology": 5944,
      "Ġfocused": 5945,
      "Ġmechanism": 5946,
      "xual": 5947,
      "rem": 5948,
      "leg": 5949,
      "Ġaren": 5950,
      "Ġchromos": 5951,
      "Ġplatform": 5952,
      "Ġrecip": 5953,
      "Ġlesson": 5954,
      "Ġcolleagues": 5955,
      "Ġapart": 5956,
      "HA": 5957,
      "abled": 5958,
      "osm": 5959,
      "ĠNor": 5960,
      "Ġchann": 5961,
      "ĠLu": 5962,
      "ĠStreet": 5963,
      "teen": 5964,
      "Ġadding": 5965,
      "Ġremaining": 5966,
      "Ġdepends": 5967,
      "anguage": 5968,
      "Ġnegot": 5969,
      "ING": 5970,
      "Ġpretty": 5971,
      "ĠChevrolet": 5972,
      "ĠChicago": 5973,
      "iner": 5974,
      "rey": 5975,
      "esis": 5976,
      "leton": 5977,
      "ĠTer": 5978,
      "ĠIV": 5979,
      "Ġorient": 5980,
      "ĠDisc": 5981,
      "ighter": 5982,
      "acters": 5983,
      "ipal": 5984,
      "Ġobl": 5985,
      "Ġsimpl": 5986,
      "Ġparalle": 5987,
      "ĠClass": 5988,
      "ymph": 5989,
      "Ġgrass": 5990,
      "Ġdebate": 5991,
      "Ġhoriz": 5992,
      "Ġgirls": 5993,
      "77": 5994,
      "called": 5995,
      "wo": 5996,
      "Ġaw": 5997,
      "isters": 5998,
      "Ġinhib": 5999,
      "asks": 6000,
      "Ġgender": 6001,
      "irds": 6002,
      "Ġconstit": 6003,
      "osph": 6004,
      "ĠDel": 6005,
      "ĠNat": 6006,
      "alls": 6007,
      "Ġamino": 6008,
      "Ġ500": 6009,
      "Ġframe": 6010,
      "Ġconsequences": 6011,
      "http": 6012,
      "mad": 6013,
      "rine": 6014,
      "ĠIr": 6015,
      "Ġrid": 6016,
      "igned": 6017,
      "ĠUSA": 6018,
      "Ġphotos": 6019,
      "Ġclaimed": 6020,
      "Ġmoral": 6021,
      "ĠDirector": 6022,
      "95": 6023,
      "Cont": 6024,
      "upp": 6025,
      "rep": 6026,
      "ĠMac": 6027,
      "ocracy": 6028,
      "Ġrh": 6029,
      "Ġdefe": 6030,
      "Ġdefense": 6031,
      "ĠOnly": 6032,
      "Ġimmig": 6033,
      "Ġcounsel": 6034,
      "Ġmountain": 6035,
      "ĠRichard": 6036,
      "Ġequivalent": 6037,
      "under": 6038,
      "inn": 6039,
      "Ġlov": 6040,
      "ĠProp": 6041,
      "throp": 6042,
      "ĠWil": 6043,
      "ansas": 6044,
      "Ġraise": 6045,
      "Ġhelpful": 6046,
      "Ġeditor": 6047,
      "Ġgenerate": 6048,
      "Ġintroduction": 6049,
      "Ġinsects": 6050,
      "Ġsediment": 6051,
      "ioxide": 6052,
      "born": 6053,
      "des": 6054,
      "gu": 6055,
      "Ġsail": 6056,
      "Ġmath": 6057,
      "oto": 6058,
      "using": 6059,
      "ĠLittle": 6060,
      "earchers": 6061,
      "Ġcontribute": 6062,
      "Ġclick": 6063,
      "Ġuniverse": 6064,
      "Ġacres": 6065,
      "Ġreform": 6066,
      "Ġexamine": 6067,
      "Ġextended": 6068,
      "Ġdepression": 6069,
      "Ġsolutions": 6070,
      "Ġcontrols": 6071,
      "Ġdeliver": 6072,
      "Ġ1960": 6073,
      "Ġrecognize": 6074,
      "ĠControl": 6075,
      "ĠRobin": 6076,
      "ss": 6077,
      "Ġinject": 6078,
      "Ġnone": 6079,
      "ĠMu": 6080,
      "Ġminim": 6081,
      "cling": 6082,
      "Ġpossibly": 6083,
      "Ġideal": 6084,
      "Ġswim": 6085,
      "Ġroute": 6086,
      "Ġscholars": 6087,
      "Dr": 6088,
      "Ġille": 6089,
      "Ġsections": 6090,
      "Ġmix": 6091,
      "Ġstock": 6092,
      "ĠRoyal": 6093,
      "ĠLincoln": 6094,
      "Ġindex": 6095,
      "Ġ1992": 6096,
      "Ġmarried": 6097,
      "Ġerr": 6098,
      "Ġsentence": 6099,
      "Ġsuperior": 6100,
      "Ġdivision": 6101,
      "Ġnucle": 6102,
      "Ġrevealed": 6103,
      "DP": 6104,
      "rete": 6105,
      "Ġcatch": 6106,
      "Ġing": 6107,
      "Ġmand": 6108,
      "Ġneither": 6109,
      "Ġlect": 6110,
      "Ġoutl": 6111,
      "Ġsurf": 6112,
      "Ġmedic": 6113,
      "Ġmyth": 6114,
      "Ġelev": 6115,
      "Ġimmun": 6116,
      "ĠSecret": 6117,
      "ĠVictor": 6118,
      "Med": 6119,
      "gent": 6120,
      "oples": 6121,
      "ĠLike": 6122,
      "Ġcommitted": 6123,
      "Ġrail": 6124,
      "Ġsubm": 6125,
      "Ġentered": 6126,
      "Ġfewer": 6127,
      "Ġguidelines": 6128,
      "Ġinvolving": 6129,
      "Ġsuccessfully": 6130,
      "Ġfacilit": 6131,
      "Ġlisten": 6132,
      "ĠAbout": 6133,
      "Ġindicates": 6134,
      "rastructure": 6135,
      "Ġhydrogen": 6136,
      "ceeded": 6137,
      "html": 6138,
      "Ġstruggle": 6139,
      "Last": 6140,
      "dden": 6141,
      "free": 6142,
      "ĠPop": 6143,
      "hips": 6144,
      "ployment": 6145,
      "ascular": 6146,
      "Ġderived": 6147,
      "Ġsituations": 6148,
      "Ġphilosophy": 6149,
      "Ġfalse": 6150,
      "65": 6151,
      "eenth": 6152,
      "wing": 6153,
      "Â·": 6154,
      "Ġath": 6155,
      "Ġpark": 6156,
      "othe": 6157,
      "ĠMel": 6158,
      "rier": 6159,
      "Ġappreci": 6160,
      "arsh": 6161,
      "Ġstring": 6162,
      "Ġelections": 6163,
      "Ġoperate": 6164,
      "ĠExper": 6165,
      "Ġinterpre": 6166,
      "Ġawareness": 6167,
      "ĠInstead": 6168,
      "73": 6169,
      "mas": 6170,
      "Ġinner": 6171,
      "ĠCult": 6172,
      "ĠEnd": 6173,
      "Ġenvironments": 6174,
      "Ġcomposition": 6175,
      "ĠVer": 6176,
      "Ġagreed": 6177,
      "Ġmode": 6178,
      "Ġconfir": 6179,
      "ocument": 6180,
      "Ġresponses": 6181,
      "Ġachieved": 6182,
      "Ġmobile": 6183,
      "Ġinstrument": 6184,
      "ĠWildlife": 6185,
      "43": 6186,
      "85": 6187,
      "CT": 6188,
      "My": 6189,
      "Rec": 6190,
      "ĠWall": 6191,
      "Ġchapter": 6192,
      "Ġautism": 6193,
      "Ġdirected": 6194,
      "Ġofficers": 6195,
      "Ġinteraction": 6196,
      "Ġtells": 6197,
      "Ġprisoners": 6198,
      "Ġconventional": 6199,
      "ĠSouthern": 6200,
      "Ġlaunched": 6201,
      "Ġvulner": 6202,
      "?\"": 6203,
      "rative": 6204,
      "Ġpull": 6205,
      "rob": 6206,
      "Ġles": 6207,
      "Ġforth": 6208,
      "irth": 6209,
      "Ġwhales": 6210,
      "ĠFree": 6211,
      "ĠOut": 6212,
      "Ġappeal": 6213,
      "erves": 6214,
      "Ġroll": 6215,
      "Ġopening": 6216,
      "Ġcalcium": 6217,
      "Ġgrew": 6218,
      "Ġembry": 6219,
      "Ġleadership": 6220,
      "Ġecosystem": 6221,
      "Ġarrived": 6222,
      "Ġmerely": 6223,
      "99": 6224,
      "IL": 6225,
      "run": 6226,
      "Ġsight": 6227,
      "Ġpig": 6228,
      "ĠSaf": 6229,
      "igan": 6230,
      "ĠImp": 6231,
      "ĠPan": 6232,
      "Ġmanaged": 6233,
      "âĢĿ,": 6234,
      "Ġages": 6235,
      "Ġdescribes": 6236,
      "ĠGuide": 6237,
      "ĠRevolution": 6238,
      ":||": 6239,
      "dis": 6240,
      "hand": 6241,
      "ĠCard": 6242,
      "Ġprove": 6243,
      "Ġcomfort": 6244,
      "ĠWood": 6245,
      "agn": 6246,
      "Ġagents": 6247,
      "Ġconscious": 6248,
      "Ġremote": 6249,
      "Ġcenters": 6250,
      "Ġ75": 6251,
      "IDS": 6252,
      "Ġspeaking": 6253,
      "Ġregularly": 6254,
      "Ġjoin": 6255,
      "heimer": 6256,
      "CS": 6257,
      "Ġtaught": 6258,
      "inos": 6259,
      "Ġsudden": 6260,
      "ensions": 6261,
      "Ġsomewhat": 6262,
      "Ġsupplement": 6263,
      "Ġmatters": 6264,
      "ĠGoogle": 6265,
      "Ġannounced": 6266,
      "Ġaccurate": 6267,
      "ait": 6268,
      "Ġsan": 6269,
      "Ġdiam": 6270,
      "Ġdrought": 6271,
      "ĠTime": 6272,
      "ĠBur": 6273,
      "ĠDi": 6274,
      "Ġchosen": 6275,
      "ĠGold": 6276,
      "Ġsports": 6277,
      "Ġdefic": 6278,
      "Ġexplo": 6279,
      "nedy": 6280,
      "apping": 6281,
      "while": 6282,
      "ĠBoard": 6283,
      "Ġmeasurements": 6284,
      "Ġforests": 6285,
      "Ġdecrease": 6286,
      "ĠUsing": 6287,
      "Ġhonor": 6288,
      "ĠAtlantic": 6289,
      "opyright": 6290,
      "gov": 6291,
      "hist": 6292,
      "hma": 6293,
      "zil": 6294,
      "Ġaward": 6295,
      "icks": 6296,
      "Ġdiversity": 6297,
      "Ġdioxide": 6298,
      "ĠAgency": 6299,
      "usal": 6300,
      "ĠExt": 6301,
      "Ġneck": 6302,
      "Ġworse": 6303,
      "ĠOh": 6304,
      "Ġamb": 6305,
      "Ġinterview": 6306,
      "Ġmedications": 6307,
      "espread": 6308,
      "Ġdelay": 6309,
      "prise": 6310,
      "Ġinvestment": 6311,
      "Ġdemonstrated": 6312,
      "ĠParis": 6313,
      "Ġbullying": 6314,
      "Ġenhance": 6315,
      "06": 6316,
      "Se": 6317,
      "alination": 6318,
      "Ġdream": 6319,
      "Ġenable": 6320,
      "Ġdoi": 6321,
      "Ġmanif": 6322,
      "Ġunion": 6323,
      "Ġchildhood": 6324,
      "Ġcourts": 6325,
      "Ġslaves": 6326,
      "Ġnetworks": 6327,
      "Ġrivers": 6328,
      "ĠAustralian": 6329,
      "Ġdeclared": 6330,
      "ĠNetwork": 6331,
      "zyme": 6332,
      "Im": 6333,
      "Ġsell": 6334,
      "ĠAst": 6335,
      "Ġalg": 6336,
      "erent": 6337,
      "ĠRome": 6338,
      "Ġseed": 6339,
      "Ġattend": 6340,
      "Ġcharacters": 6341,
      "Ġvaluable": 6342,
      "Ġwriters": 6343,
      "Ġdeaths": 6344,
      "ĠManagement": 6345,
      "ĠConservation": 6346,
      "Ġprepare": 6347,
      "Ġagreement": 6348,
      "ĠSpecial": 6349,
      "Ġvehicles": 6350,
      "Ġvessels": 6351,
      "Ġdollars": 6352,
      "74": 6353,
      "89": 6354,
      "Ġfasc": 6355,
      "sts": 6356,
      "ĠSol": 6357,
      "Ġvoice": 6358,
      "peror": 6359,
      "Ġimper": 6360,
      "Ġmanip": 6361,
      "Ġcommission": 6362,
      "Ġrecovery": 6363,
      "Ġsecure": 6364,
      "Ġsets": 6365,
      "Ġstudying": 6366,
      "Ġengaged": 6367,
      "steroid": 6368,
      "Ġcompetition": 6369,
      "Ġpowers": 6370,
      "En": 6371,
      "Ġwave": 6372,
      "anes": 6373,
      "rovers": 6374,
      "adel": 6375,
      "ĠMer": 6376,
      "Ġspin": 6377,
      "ĠKh": 6378,
      "Ġsole": 6379,
      "ificial": 6380,
      "Ġ400": 6381,
      "Ġelectron": 6382,
      "Ġrising": 6383,
      "Ġruns": 6384,
      "Ġemployed": 6385,
      "Ġcriminal": 6386,
      "produ": 6387,
      "Ġaqu": 6388,
      "Ġsought": 6389,
      "Ġwitness": 6390,
      "Ġfract": 6391,
      "lets": 6392,
      "ĠIP": 6393,
      "Ġstorm": 6394,
      "Ġstret": 6395,
      "ĠDou": 6396,
      "ĠEr": 6397,
      "Ġchain": 6398,
      "Ġpoison": 6399,
      "Ġexpansion": 6400,
      "Ġscene": 6401,
      "Ġglass": 6402,
      "Ġassociation": 6403,
      "Ġfishing": 6404,
      "Ġparticipate": 6405,
      "ĠParty": 6406,
      "bar": 6407,
      "Ġmoon": 6408,
      "Ġepidem": 6409,
      "Ġcomments": 6410,
      "Ġtrain": 6411,
      "Ġdefend": 6412,
      "comes": 6413,
      "Why": 6414,
      "ymes": 6415,
      "Ġreactions": 6416,
      "Ġframework": 6417,
      "04": 6418,
      "Ġcup": 6419,
      "Ġft": 6420,
      "Ġlose": 6421,
      "ĠTem": 6422,
      "ĠIN": 6423,
      "Ġstreet": 6424,
      "eline": 6425,
      "ĠWik": 6426,
      "ĠGulf": 6427,
      "Ġunus": 6428,
      "Ġaccum": 6429,
      "Ġcars": 6430,
      "Ġmetab": 6431,
      "Ġlegs": 6432,
      "Ġsecondary": 6433,
      "Stud": 6434,
      "Ġinjuries": 6435,
      "Ġcaptured": 6436,
      "ĠFrancisco": 6437,
      "Re": 6438,
      "icide": 6439,
      "Ġnest": 6440,
      "Ġbear": 6441,
      "Ġgather": 6442,
      "irt": 6443,
      "tery": 6444,
      "terior": 6445,
      "ĠEc": 6446,
      "ocy": 6447,
      "Ġmanage": 6448,
      "Ġuns": 6449,
      "ifications": 6450,
      "ĠAny": 6451,
      "Ġstands": 6452,
      "Ġaccounts": 6453,
      "Ġtaxes": 6454,
      "Ġrarely": 6455,
      "Ġvehicle": 6456,
      "Ġgranted": 6457,
      "EP": 6458,
      "IG": 6459,
      "bec": 6460,
      "Ġaf": 6461,
      "roat": 6462,
      "Ġhun": 6463,
      "ĠOF": 6464,
      "outs": 6465,
      "ags": 6466,
      "Ġfoundation": 6467,
      "Ġafford": 6468,
      "Ġlateral": 6469,
      "Ġcombat": 6470,
      "Ġyounger": 6471,
      "Ġholding": 6472,
      "Ġmechanisms": 6473,
      "ĠPolit": 6474,
      "ĠIslamic": 6475,
      "Ġagriculture": 6476,
      "ĠMuslims": 6477,
      "Ġconstructed": 6478,
      "Ġtouch": 6479,
      "ĠKennedy": 6480,
      "ĠMartin": 6481,
      "Ġfertil": 6482,
      "CL": 6483,
      "aud": 6484,
      "Ġcert": 6485,
      "Ġwish": 6486,
      "ĠAM": 6487,
      "unicip": 6488,
      "ĠLar": 6489,
      "Ġcommittee": 6490,
      "Ġ32": 6491,
      "Ġsurve": 6492,
      "Ġedition": 6493,
      "Ġowner": 6494,
      "Ġgenerated": 6495,
      "Ġstrike": 6496,
      "Ġjudge": 6497,
      "ĠAgricult": 6498,
      "Ġfighting": 6499,
      "ĠAvoid": 6500,
      "79": 6501,
      "cul": 6502,
      "rants": 6503,
      "Ġtank": 6504,
      "Ġfilled": 6505,
      "arant": 6506,
      "Ġlit": 6507,
      "ĠHospital": 6508,
      "Ġabund": 6509,
      "Ġintake": 6510,
      "Ġ1950": 6511,
      "Ġdoor": 6512,
      "Ġsigned": 6513,
      "Ġ1996": 6514,
      "Ġcourses": 6515,
      "Ġgenerations": 6516,
      "Ġstanding": 6517,
      "Ġphysics": 6518,
      "Ġrestrict": 6519,
      "Ġconsumers": 6520,
      "Ġsuffer": 6521,
      "Ġcarrying": 6522,
      "Ġingred": 6523,
      ")||": 6524,
      "CR": 6525,
      "pan": 6526,
      "zed": 6527,
      "ĠAff": 6528,
      "teb": 6529,
      "Ġnoise": 6530,
      "Ġdefine": 6531,
      "Ġcarefully": 6532,
      "Ġzone": 6533,
      "Ġcouncil": 6534,
      "Ġtowns": 6535,
      "Ġhypothes": 6536,
      "Ġsoldiers": 6537,
      "ĠDistrict": 6538,
      "itudes": 6539,
      "ĠJoseph": 6540,
      "Ġcircumstances": 6541,
      "net": 6542,
      "Ã³": 6543,
      "stone": 6544,
      "ĠCat": 6545,
      "ĠBre": 6546,
      "emb": 6547,
      "ĠFour": 6548,
      "Ġends": 6549,
      "Ġabnormal": 6550,
      "earing": 6551,
      "Ġunable": 6552,
      "ricts": 6553,
      "weight": 6554,
      "Ġintervention": 6555,
      "Ġsupports": 6556,
      "Ġopposite": 6557,
      "Ġplaying": 6558,
      "Ġdifficulty": 6559,
      "Ġfemales": 6560,
      "Ġobtain": 6561,
      "Ġultimately": 6562,
      "Ġquarter": 6563,
      "Ġexplanation": 6564,
      "adelph": 6565,
      "May": 6566,
      "flow": 6567,
      "rigation": 6568,
      "xts": 6569,
      "uter": 6570,
      "ĠSand": 6571,
      "ĠOs": 6572,
      "ibilities": 6573,
      "ults": 6574,
      "Ġregul": 6575,
      "Ġinvent": 6576,
      "icted": 6577,
      "Ġpublication": 6578,
      "Ġnearby": 6579,
      "Ġcircle": 6580,
      "Ġhistoric": 6581,
      "ĠMinistry": 6582,
      "Ġburning": 6583,
      "Ġethnic": 6584,
      "ĠDesign": 6585,
      "Ġcontemporary": 6586,
      "41": 6587,
      "Do": 6588,
      "SS": 6589,
      "cription": 6590,
      "iy": 6591,
      "ua": 6592,
      "Ġtips": 6593,
      "ether": 6594,
      "quit": 6595,
      "Ġinfrastructure": 6596,
      "Ġpeak": 6597,
      "ĠItalian": 6598,
      "Ġacids": 6599,
      "inking": 6600,
      "Ġlocations": 6601,
      "Ġwriter": 6602,
      "Ġcorpor": 6603,
      "Ġengage": 6604,
      "________": 6605,
      "cribed": 6606,
      "Ġvictims": 6607,
      "Over": 6608,
      "Ġ*": 6609,
      "imens": 6610,
      "ĠSup": 6611,
      "ĠData": 6612,
      "Ġinches": 6613,
      "Ġuniversity": 6614,
      "Ġregulations": 6615,
      "Ġdecide": 6616,
      "Ġsmooth": 6617,
      "Ġdepart": 6618,
      "hemical": 6619,
      "Ġreaders": 6620,
      "ditional": 6621,
      "Ġsignificance": 6622,
      "ipping": 6623,
      "burg": 6624,
      "Ġantibiot": 6625,
      "BS": 6626,
      "Pe": 6627,
      "body": 6628,
      "las": 6629,
      "oir": 6630,
      "ĠItaly": 6631,
      "Ġshell": 6632,
      "Ġinsurance": 6633,
      "Ġpassage": 6634,
      "Ġphoto": 6635,
      "Ġinstitution": 6636,
      "ĠBrazil": 6637,
      "ĠPortug": 6638,
      "adelphia": 6639,
      "yal": 6640,
      "Ġwel": 6641,
      "Ġpapers": 6642,
      "Ġexists": 6643,
      "andon": 6644,
      "anging": 6645,
      "everal": 6646,
      "Ġprovider": 6647,
      "Ġinvestigation": 6648,
      "Ġdriving": 6649,
      "Ġcrime": 6650,
      "Ġmolecular": 6651,
      "Ġwidespread": 6652,
      "Ġterritory": 6653,
      "Ġbutterf": 6654,
      "\")": 6655,
      "'d": 6656,
      ",'": 6657,
      "72": 6658,
      "First": 6659,
      "mond": 6660,
      "tic": 6661,
      "indu": 6662,
      "esity": 6663,
      "orter": 6664,
      "asp": 6665,
      "Ġlake": 6666,
      "Ġye": 6667,
      "ĠNative": 6668,
      "Ġsharing": 6669,
      "Ġcontamin": 6670,
      "Ġdisabilities": 6671,
      "Ġcloud": 6672,
      "bert": 6673,
      "Ġprotocol": 6674,
      "scale": 6675,
      "Ġinteractions": 6676,
      "Ġcryst": 6677,
      "ĠLearning": 6678,
      "Ġcloser": 6679,
      "Ġbudget": 6680,
      ")|": 6681,
      "71": 6682,
      "Since": 6683,
      "word": 6684,
      "ena": 6685,
      "Ġfurn": 6686,
      "etary": 6687,
      "Ġ(\"": 6688,
      "estine": 6689,
      "osh": 6690,
      "ĠNov": 6691,
      "Ġplate": 6692,
      "Ġcontrovers": 6693,
      "Ġcomposed": 6694,
      "Ġresident": 6695,
      "ĠStar": 6696,
      "iana": 6697,
      "Ġpeoples": 6698,
      "Ġscan": 6699,
      "ĠResources": 6700,
      "Ġmarkets": 6701,
      "ĠGeorg": 6702,
      "Ġlandscape": 6703,
      "69": 6704,
      "how": 6705,
      "Ġtall": 6706,
      "Ġble": 6707,
      "Ġfill": 6708,
      "Ġmice": 6709,
      "Ġrein": 6710,
      "Ġrecept": 6711,
      "Ġlie": 6712,
      "ĠCamp": 6713,
      "ĠId": 6714,
      "Ġconclusion": 6715,
      "ĠMad": 6716,
      "isted": 6717,
      "ĠEp": 6718,
      "ounded": 6719,
      "Ġseemed": 6720,
      "Ġwindow": 6721,
      "Ġfrequent": 6722,
      "Ġpermission": 6723,
      "Ġestimates": 6724,
      "Ġcoastal": 6725,
      "Ġmathematics": 6726,
      "ĠColorado": 6727,
      "Or": 6728,
      "cus": 6729,
      "gs": 6730,
      "then": 6731,
      "Ġtal": 6732,
      "eters": 6733,
      "ĠBill": 6734,
      "ĠEff": 6735,
      "Ġseeds": 6736,
      "Ġproved": 6737,
      "Ġcommunications": 6738,
      "Ġparam": 6739,
      "ĠScott": 6740,
      "Ġmicros": 6741,
      "Ġsuffering": 6742,
      "Ġordered": 6743,
      "Ġvaccine": 6744,
      "commun": 6745,
      "ĠAdministration": 6746,
      "?âĢĿ": 6747,
      "lv": 6748,
      "pd": 6749,
      "Ġov": 6750,
      "edu": 6751,
      "omer": 6752,
      "ĠTim": 6753,
      "ols": 6754,
      "ĠMS": 6755,
      "Ġabandon": 6756,
      "ĠThrough": 6757,
      "ishop": 6758,
      "Ġremark": 6759,
      "Ġcentre": 6760,
      "Ġgrade": 6761,
      "Ġdepartment": 6762,
      "Ġslavery": 6763,
      "Ġapproved": 6764,
      "ĠChristians": 6765,
      "ĠObama": 6766,
      "Ġcooling": 6767,
      "car": 6768,
      "mail": 6769,
      "Ġthor": 6770,
      "Ġnose": 6771,
      "osion": 6772,
      "ĠGard": 6773,
      "agon": 6774,
      "ulty": 6775,
      "ĠStep": 6776,
      "ĠKar": 6777,
      "ĠVit": 6778,
      "ĠIndones": 6779,
      "Ġthoughts": 6780,
      "Ġguarant": 6781,
      "Ġopposition": 6782,
      "Ġfacility": 6783,
      "Ġimplementation": 6784,
      "Ġmanufacturing": 6785,
      "08": 6786,
      "Can": 6787,
      "fortunately": 6788,
      "zheimer": 6789,
      "Ġcognitive": 6790,
      "Ġwants": 6791,
      "Ġinternet": 6792,
      "Ġmild": 6793,
      "Ġnob": 6794,
      "utch": 6795,
      "Ġexchange": 6796,
      "Ġsuitable": 6797,
      "ĠDu": 6798,
      "Ġcompounds": 6799,
      "Ġscar": 6800,
      "Ġremind": 6801,
      "ĠAsian": 6802,
      "ĠSeattle": 6803,
      "Ġopposed": 6804,
      "Ġputting": 6805,
      "Ġtruly": 6806,
      "Ġintegrated": 6807,
      "Ġwalking": 6808,
      "Ġcomparison": 6809,
      "Ġparallel": 6810,
      "OL": 6811,
      "Us": 6812,
      "ivery": 6813,
      "Ġwhatever": 6814,
      "ĠHaw": 6815,
      "ocial": 6816,
      "ivated": 6817,
      "ĠUt": 6818,
      "Ġdischar": 6819,
      "Ġpref": 6820,
      "ypes": 6821,
      "Ġknows": 6822,
      "udej": 6823,
      "Ġaccessible": 6824,
      "ĠCoast": 6825,
      "Ġdivor": 6826,
      "ometers": 6827,
      "ĠPhiladelphia": 6828,
      "ĠAlexander": 6829,
      "Ġdedicated": 6830,
      "Even": 6831,
      "herent": 6832,
      "ano": 6833,
      "omach": 6834,
      "ĠTop": 6835,
      "ĠSat": 6836,
      "umes": 6837,
      "ĠDet": 6838,
      "ĠLiter": 6839,
      "Ġshift": 6840,
      "plant": 6841,
      "agle": 6842,
      "Ġcontained": 6843,
      "Ġundert": 6844,
      "ventions": 6845,
      "Ġentry": 6846,
      "Ġcurriculum": 6847,
      "ashion": 6848,
      "Ġspacecraft": 6849,
      "Ġlaid": 6850,
      "Ġconsiderable": 6851,
      "Ġtransportation": 6852,
      "igenous": 6853,
      "ĠOxford": 6854,
      "MS": 6855,
      "TS": 6856,
      "ais": 6857,
      "pet": 6858,
      "hered": 6859,
      "erals": 6860,
      "stract": 6861,
      "Ġgay": 6862,
      "raq": 6863,
      "Ġwasn": 6864,
      "Ġneut": 6865,
      "ograp": 6866,
      "acts": 6867,
      "Ġcompris": 6868,
      "Ġclin": 6869,
      "Ġcolumn": 6870,
      "Ġdefects": 6871,
      "Ġmeters": 6872,
      "lishing": 6873,
      "Ġparas": 6874,
      "Ġbreeding": 6875,
      "ĠEncyclopedia": 6876,
      "ochond": 6877,
      "iary": 6878,
      "enh": 6879,
      "alysis": 6880,
      "Ġbio": 6881,
      "Ġfixed": 6882,
      "Ġdiverse": 6883,
      "etime": 6884,
      "eless": 6885,
      "ĠRab": 6886,
      "Ġrig": 6887,
      "Ġrank": 6888,
      "ipedia": 6889,
      "Ġdesalination": 6890,
      "ĠAlzheimer": 6891,
      "ĠConst": 6892,
      "Ġterror": 6893,
      "Ġimproving": 6894,
      "Ġpainting": 6895,
      "Ġdrawn": 6896,
      "Ġlabel": 6897,
      "Ġmagnetic": 6898,
      "Ġuniversal": 6899,
      "Ġarchitecture": 6900,
      "Ġsatellite": 6901,
      "IP": 6902,
      "TA": 6903,
      "Ġâ": 6904,
      "Ġcited": 6905,
      "orous": 6906,
      "Ġbrand": 6907,
      "Ġeld": 6908,
      "sey": 6909,
      "ĠSign": 6910,
      "ĠMudej": 6911,
      "orted": 6912,
      "Ġprev": 6913,
      "Ġoverl": 6914,
      "Ġproduces": 6915,
      "Ġobst": 6916,
      "Ġminute": 6917,
      "ĠEngine": 6918,
      "Ġcreates": 6919,
      "rolled": 6920,
      "Ġarrange": 6921,
      "Ġconcluded": 6922,
      "Ġisolated": 6923,
      "Of": 6924,
      "Ġtaste": 6925,
      "Ġtheore": 6926,
      "itual": 6927,
      "Ġfisher": 6928,
      "Ġmm": 6929,
      "urrent": 6930,
      "ĠSym": 6931,
      "Ġyield": 6932,
      "Ġprovince": 6933,
      "Ġwhereas": 6934,
      "Ġplanned": 6935,
      "print": 6936,
      "Ġrepresentation": 6937,
      "Ġsumm": 6938,
      "Ġcreative": 6939,
      "Ġparticipation": 6940,
      "Ġthreatened": 6941,
      "Ġtalking": 6942,
      "Ġconsistent": 6943,
      "Ġaudio": 6944,
      "Ġdependent": 6945,
      "ythm": 6946,
      "Ġnewspaper": 6947,
      "',": 6948,
      "Ġol": 6949,
      "Ġpou": 6950,
      "asters": 6951,
      "Ġbeat": 6952,
      "ĠRom": 6953,
      "Ġjump": 6954,
      "Ġtexts": 6955,
      "Ġevil": 6956,
      "tenance": 6957,
      "Ġseeing": 6958,
      "2012": 6959,
      "Ġessentially": 6960,
      "Ġdestruction": 6961,
      "Ġfulf": 6962,
      "Ġtribes": 6963,
      "ĠSurvey": 6964,
      "Ġexpanded": 6965,
      "Ġbranch": 6966,
      "Ġsweet": 6967,
      "Ġphenomenon": 6968,
      "Ġsenior": 6969,
      "Ġearthquake": 6970,
      "'.": 6971,
      "42": 6972,
      "Bl": 6973,
      "but": 6974,
      "hyd": 6975,
      "vard": 6976,
      "zymes": 6977,
      "ato": 6978,
      "Ġcoc": 6979,
      "Ġpit": 6980,
      "Ġfed": 6981,
      "ĠSk": 6982,
      "Ġchlor": 6983,
      "Ġnotion": 6984,
      "Ġwilling": 6985,
      "Ġpreced": 6986,
      "Ġdistricts": 6987,
      "Ġveter": 6988,
      "Ġchest": 6989,
      "ĠStudy": 6990,
      "Ġregarded": 6991,
      "ĠSupp": 6992,
      "Ġroutine": 6993,
      "Ġassigned": 6994,
      "Ġinstruments": 6995,
      "Ġratio": 6996,
      "ixture": 6997,
      "Ġmedicines": 6998,
      "ĠOhio": 6999,
      "iop": 7000,
      "Ġstone": 7001,
      "Ġproof": 7002,
      "ĠMah": 7003,
      "iller": 7004,
      "ĠâĢ¦": 7005,
      "ĠThree": 7006,
      "Ġdesire": 7007,
      "Ġstatements": 7008,
      "Ġboys": 7009,
      "Ġcultures": 7010,
      "ĠEarly": 7011,
      "Ġturns": 7012,
      "Ġgreenhouse": 7013,
      "Ġsacr": 7014,
      "uilding": 7015,
      "Ġlaser": 7016,
      "iability": 7017,
      "mod": 7018,
      "rite": 7019,
      "zona": 7020,
      "rection": 7021,
      "Ġwaves": 7022,
      "Ġpounds": 7023,
      "Ġmail": 7024,
      "Ġhunting": 7025,
      "ĠTit": 7026,
      "ĠAccess": 7027,
      "ady": 7028,
      "operation": 7029,
      "ĠList": 7030,
      "Ġusage": 7031,
      "Ġuniform": 7032,
      "Ġrow": 7033,
      "Ġdistur": 7034,
      "Ġseeking": 7035,
      "Ġcommunicate": 7036,
      "ĠWho": 7037,
      "Ġscientist": 7038,
      "ĠExpl": 7039,
      "Ġofficer": 7040,
      "Ġindicated": 7041,
      "Ġvisitors": 7042,
      "ulsion": 7043,
      "Ġhazard": 7044,
      "86": 7045,
      "ugg": 7046,
      "Ġtasks": 7047,
      "Ġmixed": 7048,
      "Ġdrain": 7049,
      "raham": 7050,
      "Ġstomach": 7051,
      "ĠMot": 7052,
      "ĠBank": 7053,
      "Ġenzyme": 7054,
      "Ġ1930": 7055,
      "osexual": 7056,
      "ĠKnow": 7057,
      "Ġscript": 7058,
      "Ġpolar": 7059,
      "Ġcovers": 7060,
      "Ġpassing": 7061,
      "ippi": 7062,
      "Ġinteractive": 7063,
      "Ġcapture": 7064,
      "Ġcomplicated": 7065,
      "Ġbegun": 7066,
      "Ġprincipal": 7067,
      "Ġfairly": 7068,
      "Ġescape": 7069,
      "Ġnitrogen": 7070,
      "Ġadequate": 7071,
      "Comp": 7072,
      "Int": 7073,
      "names": 7074,
      "Ġaer": 7075,
      "Ġske": 7076,
      "sell": 7077,
      "uts": 7078,
      "ette": 7079,
      "urric": 7080,
      "Ġstre": 7081,
      "Ġstable": 7082,
      "istent": 7083,
      "Ġshif": 7084,
      "reek": 7085,
      "Ġassume": 7086,
      "Ġextend": 7087,
      "Ġgravity": 7088,
      "Ġended": 7089,
      "Ġzero": 7090,
      "Ġrecognition": 7091,
      "ĠMinister": 7092,
      "Ġbiggest": 7093,
      "Ġturning": 7094,
      "ĠHeritage": 7095,
      "Ġimplications": 7096,
      "Ġcrucial": 7097,
      "ĠMississ": 7098,
      "Ġmoisture": 7099,
      "Ġsurfaces": 7100,
      "Go": 7101,
      "feed": 7102,
      "gans": 7103,
      "host": 7104,
      "Ġpus": 7105,
      "Ġbomb": 7106,
      "Ġgained": 7107,
      "Ġorb": 7108,
      "ĠDictionary": 7109,
      "ĠJon": 7110,
      "Ġplus": 7111,
      "Ġcluster": 7112,
      "ressive": 7113,
      "Ġflag": 7114,
      "Ġtransition": 7115,
      "Ġrefuge": 7116,
      "Ġ65": 7117,
      "theless": 7118,
      "Ġpercentage": 7119,
      "Ġcriteria": 7120,
      "Ġvolcan": 7121,
      "Ġ1969": 7122,
      "Ġkiller": 7123,
      "Ġoptical": 7124,
      "Ġsuffered": 7125,
      "ĠÂ©": 7126,
      "Ġkingdom": 7127,
      "Ġvariable": 7128,
      "Ġvillages": 7129,
      "Ġfruits": 7130,
      "Ġmelan": 7131,
      "Ġsubstantial": 7132,
      "Ġscheme": 7133,
      "Ġfibers": 7134,
      "Ġprofessionals": 7135,
      "Ġanxiety": 7136,
      "fish": 7137,
      "ester": 7138,
      "olt": 7139,
      "irie": 7140,
      "Ġalter": 7141,
      "Ġneur": 7142,
      "Ġinterior": 7143,
      "Ġtransf": 7144,
      "Ġcalling": 7145,
      "Ġrequest": 7146,
      "Ġlessons": 7147,
      "Ġconference": 7148,
      "ditionally": 7149,
      "Ġhappy": 7150,
      "Ġbusinesses": 7151,
      "Ġdiagnosed": 7152,
      "ĠAngel": 7153,
      "Ġelsewhere": 7154,
      "ĠMalays": 7155,
      "ĠSupreme": 7156,
      "Qu": 7157,
      "Ġasteroid": 7158,
      "onents": 7159,
      "Ġcrow": 7160,
      "asive": 7161,
      "Ġongoing": 7162,
      "Ġstrict": 7163,
      "ĠBureau": 7164,
      "Ġspir": 7165,
      "ĠJac": 7166,
      "ella": 7167,
      "Ġoutcome": 7168,
      "ĠChapter": 7169,
      "Ġcharged": 7170,
      "Ġsupporting": 7171,
      "Ġmatch": 7172,
      "Ġseconds": 7173,
      "Ġdelivery": 7174,
      "Ġmechanical": 7175,
      "ĠKingdom": 7176,
      "ĠPrince": 7177,
      "nesota": 7178,
      "Ġweapons": 7179,
      "top": 7180,
      "Ġbanks": 7181,
      "ĠCross": 7182,
      "elve": 7183,
      "estion": 7184,
      "Ġincl": 7185,
      "Ġresolution": 7186,
      "Ġconserv": 7187,
      "Ġhandle": 7188,
      "Ġstrongly": 7189,
      "Ġargue": 7190,
      "Ġattempts": 7191,
      "ĠSuper": 7192,
      "Ġmessages": 7193,
      "Ġinstructions": 7194,
      "aired": 7195,
      "onia": 7196,
      "Ġinert": 7197,
      "ĠCy": 7198,
      "ĠIraq": 7199,
      "ĠBul": 7200,
      "abul": 7201,
      "achers": 7202,
      "iah": 7203,
      "ĠOk": 7204,
      "fficking": 7205,
      "Ġintense": 7206,
      "Ġdisk": 7207,
      "Ġwheat": 7208,
      "ĠThough": 7209,
      "Ġroyal": 7210,
      "erted": 7211,
      "Ġfeeding": 7212,
      "Ġsignals": 7213,
      "Ġdistributed": 7214,
      "Ġdownload": 7215,
      "Ġslave": 7216,
      "Ġholds": 7217,
      "ĠBooks": 7218,
      "Ġsettlement": 7219,
      "ĠEdward": 7220,
      "Ġviruses": 7221,
      "ĠEgyptian": 7222,
      "Ġexperimental": 7223,
      "Ġbreathing": 7224,
      "Ġcategories": 7225,
      "Ġbehaviors": 7226,
      "Because": 7227,
      "Ed": 7228,
      "Figure": 7229,
      "IM": 7230,
      "John": 7231,
      "li": 7232,
      "making": 7233,
      "uber": 7234,
      "inates": 7235,
      "Ġcodes": 7236,
      "itarian": 7237,
      "ani": 7238,
      "Ġmaps": 7239,
      "Ġmales": 7240,
      "Ġstages": 7241,
      "ĠPolic": 7242,
      "osc": 7243,
      "ĠGar": 7244,
      "Ġspok": 7245,
      "Ġteen": 7246,
      "Ġthereby": 7247,
      "Ġpharm": 7248,
      "Ġexped": 7249,
      "Ġestimate": 7250,
      "roduction": 7251,
      "Ġ150": 7252,
      "Ġtrip": 7253,
      "Ġprophe": 7254,
      "including": 7255,
      "Ġdrawing": 7256,
      "fall": 7257,
      "uels": 7258,
      "alm": 7259,
      "Ġbeds": 7260,
      "ĠSar": 7261,
      "Ġconqu": 7262,
      "Ġconven": 7263,
      "ĠMake": 7264,
      "Ġritual": 7265,
      "Ġplays": 7266,
      "Ġkit": 7267,
      "Ġoutbre": 7268,
      "ails": 7269,
      "angered": 7270,
      "Ġinterface": 7271,
      "Ġedge": 7272,
      "ounter": 7273,
      "Ġequally": 7274,
      "ographical": 7275,
      "aneous": 7276,
      "liest": 7277,
      "chez": 7278,
      "Ġemotions": 7279,
      "Ġlegislation": 7280,
      "ĠMaryland": 7281,
      "Ġcommitment": 7282,
      "Ġconfirmed": 7283,
      "Ref": 7284,
      "Ġgy": 7285,
      "Ġgiant": 7286,
      "ĠPlease": 7287,
      "ĠBig": 7288,
      "abits": 7289,
      "riers": 7290,
      "ptic": 7291,
      "rous": 7292,
      "Ġreserved": 7293,
      "eping": 7294,
      "Ġreliable": 7295,
      "Ġadds": 7296,
      "rowing": 7297,
      "hesis": 7298,
      "Ġhealthcare": 7299,
      "Ġartists": 7300,
      "Ġplane": 7301,
      "Ġplanets": 7302,
      "Ġvalid": 7303,
      "azing": 7304,
      "Ġreceiving": 7305,
      "Ġindustries": 7306,
      "Ġseparated": 7307,
      "Ġirrigation": 7308,
      "Ġcovering": 7309,
      "Ġaccuracy": 7310,
      "Ġinterpretation": 7311,
      "Ġemphasis": 7312,
      "ĠLaboratory": 7313,
      "Ġhormone": 7314,
      "ĠDisease": 7315,
      "Ġjourney": 7316,
      "ĠMississippi": 7317,
      "98": 7318,
      "lation": 7319,
      "Ġfet": 7320,
      "Ġlots": 7321,
      "Ġlymph": 7322,
      "Ġbeings": 7323,
      "ĠSil": 7324,
      "ĠHave": 7325,
      "acing": 7326,
      "ĠEqu": 7327,
      "ĠEastern": 7328,
      "ruption": 7329,
      "Ġevident": 7330,
      "Ġtrained": 7331,
      "Ġ37": 7332,
      "Ġrose": 7333,
      "Ġflo": 7334,
      "Ġexamination": 7335,
      "century": 7336,
      "ĠAdv": 7337,
      "Ġconcentrations": 7338,
      "Ġevaluation": 7339,
      "Ġcooking": 7340,
      "ĠArizona": 7341,
      "Ġillegal": 7342,
      "AA": 7343,
      "DT": 7344,
      "QL": 7345,
      "bour": 7346,
      "Ġbread": 7347,
      "Ġmercury": 7348,
      "idance": 7349,
      "Ġforget": 7350,
      "Ġstead": 7351,
      "Ġstroke": 7352,
      "ivered": 7353,
      "Ġpartner": 7354,
      "itely": 7355,
      "Ġtract": 7356,
      "Ġrelief": 7357,
      "Ġ55": 7358,
      "Ġsheet": 7359,
      "Ġparad": 7360,
      "Ġfacing": 7361,
      "2009": 7362,
      "Ġheads": 7363,
      "ĠScot": 7364,
      "Ġcardi": 7365,
      "Ġpurchase": 7366,
      "ĠMicro": 7367,
      "ĠForest": 7368,
      "Ġinflammation": 7369,
      "GO": 7370,
      "Pre": 7371,
      "real": 7372,
      "reated": 7373,
      "Ġsod": 7374,
      "Ġoral": 7375,
      "ĠEPA": 7376,
      "ĠFamily": 7377,
      "Ġran": 7378,
      "aked": 7379,
      "phone": 7380,
      "Ġ38": 7381,
      "Ġregime": 7382,
      "Ġmodified": 7383,
      "Ġfinds": 7384,
      "Ġservers": 7385,
      "Ġstarts": 7386,
      "Ġfourth": 7387,
      "aimed": 7388,
      "Ġflower": 7389,
      "Ġdamaged": 7390,
      "ĠMinnesota": 7391,
      "Ġdemonstrate": 7392,
      "Ġmountains": 7393,
      "Ġexception": 7394,
      "ĠPMID": 7395,
      "Ġappointed": 7396,
      "Ġtrouble": 7397,
      "Ġcamera": 7398,
      "Ġathlet": 7399,
      "BI": 7400,
      "Comm": 7401,
      "iations": 7402,
      "onn": 7403,
      "Ġsession": 7404,
      "Ġnurs": 7405,
      "ĠAS": 7406,
      "ading": 7407,
      "Ġexclus": 7408,
      "ĠForm": 7409,
      "Ġhighlight": 7410,
      "ĠArts": 7411,
      "Ġmaintenance": 7412,
      "Ġdescend": 7413,
      "elfare": 7414,
      "Ġessay": 7415,
      "Ġencouraged": 7416,
      "Ġbabies": 7417,
      "Ġtissues": 7418,
      "ĠObject": 7419,
      "ĠWindows": 7420,
      "Not": 7421,
      "bel": 7422,
      "fts": 7423,
      "gical": 7424,
      "non": 7425,
      "Ġ^": 7426,
      "Ġhidden": 7427,
      "ĠLanguage": 7428,
      "Ġusual": 7429,
      "Ġourselves": 7430,
      "Ġinstalled": 7431,
      "Ġpatent": 7432,
      "Ġpresentation": 7433,
      "Ġfarms": 7434,
      "ĠJohnson": 7435,
      "Ġchoices": 7436,
      "Ġoptim": 7437,
      "Ġbringing": 7438,
      "ĠSenate": 7439,
      "Ġsubsequent": 7440,
      "].": 7441,
      "Ġtropical": 7442,
      "inally": 7443,
      "ĠPo": 7444,
      "Ġhero": 7445,
      "ĠWhere": 7446,
      "ĠFace": 7447,
      "ĠFund": 7448,
      "arts": 7449,
      "ĠLin": 7450,
      "Ġdose": 7451,
      "anges": 7452,
      "Ġrecover": 7453,
      "Ġaccident": 7454,
      "ooking": 7455,
      "Ġ1880": 7456,
      "Ġsmoke": 7457,
      "Ġdistant": 7458,
      "Ġwrites": 7459,
      "arents": 7460,
      "ĠAdd": 7461,
      "Ġfeelings": 7462,
      "Ġmagnitude": 7463,
      "ĠTestament": 7464,
      "Ġrenewable": 7465,
      "ĠOrganization": 7466,
      "Ġchicken": 7467,
      "unicipal": 7468,
      "Le": 7469,
      "Ġtight": 7470,
      "Ġcav": 7471,
      "Ġblow": 7472,
      "Ġlin": 7473,
      "oler": 7474,
      "adow": 7475,
      "ĠMain": 7476,
      "ĠPoint": 7477,
      "ĠOl": 7478,
      "apse": 7479,
      "ĠVis": 7480,
      "Ġunderlying": 7481,
      "iously": 7482,
      "Ġartificial": 7483,
      "Ġ1991": 7484,
      "Ġdirections": 7485,
      "Ġguard": 7486,
      "Ġcareful": 7487,
      "Ġrealize": 7488,
      "Ġliterary": 7489,
      "ĠVolume": 7490,
      "Ġatmospheric": 7491,
      "Ġcorner": 7492,
      "Ġtraditions": 7493,
      "ĠAuthor": 7494,
      "iblical": 7495,
      "la": 7496,
      "hea": 7497,
      "Ġcab": 7498,
      "Ġthr": 7499,
      "ĠCle": 7500,
      "ĠHoly": 7501,
      "Ġsup": 7502,
      "ĠRh": 7503,
      "Ġchair": 7504,
      "ĠLib": 7505,
      "ogether": 7506,
      "Ġshop": 7507,
      "Ġsharp": 7508,
      "ĠJeff": 7509,
      "Ġunw": 7510,
      "avor": 7511,
      "ĠKansas": 7512,
      "ishment": 7513,
      "ĠVen": 7514,
      "Ġrocks": 7515,
      "Ġproven": 7516,
      "Ġfever": 7517,
      "Ġpositions": 7518,
      "ĠWarren": 7519,
      "Ġkilling": 7520,
      "Ġsubstances": 7521,
      "ĠAmong": 7522,
      "Ġordinary": 7523,
      "Ġcopyright": 7524,
      "iosity": 7525,
      "Ġmosquit": 7526,
      "ĠGeorgia": 7527,
      "App": 7528,
      "Ear": 7529,
      "Read": 7530,
      "cin": 7531,
      "gers": 7532,
      "zer": 7533,
      "Ġ..": 7534,
      "itivity": 7535,
      "Ġtomat": 7536,
      "ĠAh": 7537,
      "ĠMen": 7538,
      "ĠPC": 7539,
      "ĠPed": 7540,
      "ĠFDA": 7541,
      "Ġring": 7542,
      "Ġenorm": 7543,
      "Ġcontribution": 7544,
      "Ġoutcomes": 7545,
      "Ġpreserve": 7546,
      "Ġhumidity": 7547,
      "Ġknowing": 7548,
      "Ġdescript": 7549,
      "Ġtempor": 7550,
      "Ġprominent": 7551,
      "ĠBefore": 7552,
      "Ġasking": 7553,
      "Ġworksh": 7554,
      "Ġinfluenced": 7555,
      "Ġprinted": 7556,
      "Ġsilver": 7557,
      "Ġharmful": 7558,
      "Ġmissing": 7559,
      "Ġpanel": 7560,
      "Ġbehaviour": 7561,
      "Ġupdated": 7562,
      "ĠSometimes": 7563,
      "%)": 7564,
      "FS": 7565,
      "National": 7566,
      "just": 7567,
      "rd": 7568,
      "Ġahead": 7569,
      "hether": 7570,
      "Ġbot": 7571,
      "rove": 7572,
      "Ġgap": 7573,
      "ĠHill": 7574,
      "ĠDen": 7575,
      "Ġseat": 7576,
      "Ġmedication": 7577,
      "Ġtechnological": 7578,
      "venile": 7579,
      "ĠSpring": 7580,
      "Ġgluc": 7581,
      "Ġchemistry": 7582,
      "Ġdriven": 7583,
      "ĠServices": 7584,
      "ĠCommunity": 7585,
      "ĠMichigan": 7586,
      "09": 7587,
      "63": 7588,
      "RA": 7589,
      "itals": 7590,
      "Ġfro": 7591,
      "Ġnode": 7592,
      "Ġislands": 7593,
      "ulpt": 7594,
      "ĠPage": 7595,
      "eren": 7596,
      "ocent": 7597,
      "Ġcancers": 7598,
      "apor": 7599,
      "ologic": 7600,
      "Ġbless": 7601,
      "Ġblocks": 7602,
      "Ġsmart": 7603,
      "Ġreader": 7604,
      "Ġboat": 7605,
      "Ġ1988": 7606,
      "Ġprotective": 7607,
      "ourage": 7608,
      "prof": 7609,
      "Ġwatershed": 7610,
      "ĠConference": 7611,
      "About": 7612,
      "Ġunusual": 7613,
      "59": 7614,
      "68": 7615,
      "Mar": 7616,
      "Pl": 7617,
      "pass": 7618,
      "Ġcaught": 7619,
      "itative": 7620,
      "itler": 7621,
      "Ġboy": 7622,
      "ĠCreat": 7623,
      "ĠHor": 7624,
      "Ġvan": 7625,
      "ĠNaz": 7626,
      "ĠLow": 7627,
      "Ġships": 7628,
      "Ġenzymes": 7629,
      "ĠObs": 7630,
      "ateral": 7631,
      "soft": 7632,
      "Ġpreval": 7633,
      "riting": 7634,
      "Ġrab": 7635,
      "Ġacknow": 7636,
      "ollowing": 7637,
      "Ġpointed": 7638,
      "Ġcorrel": 7639,
      "Ġlowest": 7640,
      "Ġproportion": 7641,
      "2008": 7642,
      "Ġhappening": 7643,
      "Ġabsence": 7644,
      "Ġdropped": 7645,
      "Ġspectrum": 7646,
      "Ġintelligence": 7647,
      "Ġvulnerable": 7648,
      "Per": 7649,
      "hav": 7650,
      "rity": 7651,
      "ĠÎ": 7652,
      "Ġfo": 7653,
      "Ġinqu": 7654,
      "ĠAcc": 7655,
      "ami": 7656,
      "Ġvoc": 7657,
      "Ġperception": 7658,
      "Ġarmed": 7659,
      "Ġ48": 7660,
      "Ġpresents": 7661,
      "Ġbelieves": 7662,
      "Ġconnections": 7663,
      "Ġfunds": 7664,
      "regon": 7665,
      "Ġsoul": 7666,
      "Ġmothers": 7667,
      "ĠProtection": 7668,
      "ĠDivision": 7669,
      "Ġthorough": 7670,
      "58": 7671,
      "PI": 7672,
      "Sc": 7673,
      "ugh": 7674,
      "Ġvel": 7675,
      "Ġbatt": 7676,
      "oul": 7677,
      "ouds": 7678,
      "Ġdance": 7679,
      "ĠBal": 7680,
      "Ġsport": 7681,
      "Ġdisaster": 7682,
      "Ġpoem": 7683,
      "Ġtransp": 7684,
      "Ġcarb": 7685,
      "Ġvisited": 7686,
      "Ġadvis": 7687,
      "Ġwarning": 7688,
      "sylv": 7689,
      "ĠClimate": 7690,
      "Ġfinished": 7691,
      "ĠMedia": 7692,
      "Ġconsumer": 7693,
      "Ġmachines": 7694,
      "Ġvirtual": 7695,
      "Ġlicens": 7696,
      "ĠHistorical": 7697,
      "Ġroughly": 7698,
      "OU": 7699,
      "gence": 7700,
      "Å¿": 7701,
      "Ġdates": 7702,
      "Ġlists": 7703,
      "ĠAge": 7704,
      "adm": 7705,
      "Ġconj": 7706,
      "ĠHay": 7707,
      "essions": 7708,
      "ĠDespite": 7709,
      "aph": 7710,
      "Ġresc": 7711,
      "Ġaggress": 7712,
      "wealth": 7713,
      "Ġflour": 7714,
      "Ġearn": 7715,
      "uese": 7716,
      "amps": 7717,
      "Ġidentification": 7718,
      "Ġdelivered": 7719,
      "Ġmaintained": 7720,
      "Ġstopped": 7721,
      "Ġorders": 7722,
      "Ġaims": 7723,
      "ĠCurrent": 7724,
      "Ġinitiative": 7725,
      "ĠCambridge": 7726,
      "Ġphrase": 7727,
      "Ġenforcement": 7728,
      "Ġaccompan": 7729,
      "Ġlecture": 7730,
      "CE": 7731,
      "Your": 7732,
      "Ġfashion": 7733,
      "Ġnodes": 7734,
      "Ġlunch": 7735,
      "ĠSund": 7736,
      "ĠHo": 7737,
      "ĠHy": 7738,
      "ĠFe": 7739,
      "anda": 7740,
      "ĠLee": 7741,
      "Ġdism": 7742,
      "assination": 7743,
      "orses": 7744,
      "Ġrepair": 7745,
      "Ġsupplements": 7746,
      "Ġartist": 7747,
      "ĠIndust": 7748,
      "ucky": 7749,
      "Ġsettled": 7750,
      "ĠPrevention": 7751,
      "Ġdealing": 7752,
      "Ġtumors": 7753,
      "Ġvirtually": 7754,
      "Ġtoxicity": 7755,
      "ĠKorean": 7756,
      "Ġuniversities": 7757,
      "Ġmanifest": 7758,
      "oom": 7759,
      "only": 7760,
      "ouri": 7761,
      "Ġholid": 7762,
      "Ġrely": 7763,
      "imm": 7764,
      "rav": 7765,
      "ĠSant": 7766,
      "iratory": 7767,
      "Ġdeeper": 7768,
      "Ġleaf": 7769,
      "Ġspaces": 7770,
      "ardo": 7771,
      "ustain": 7772,
      "izer": 7773,
      "ĠChange": 7774,
      "Ġsched": 7775,
      "ranes": 7776,
      "ĠWeek": 7777,
      "class": 7778,
      "Ġconfirm": 7779,
      "Ġcharacterized": 7780,
      "Ġgrounds": 7781,
      "Ġimprovement": 7782,
      "Ġarchae": 7783,
      "Ġremoval": 7784,
      "Ġecological": 7785,
      "Ġaltitude": 7786,
      "Ġautomatically": 7787,
      "ĠAND": 7788,
      "Ġpesticides": 7789,
      "Every": 7790,
      "LL": 7791,
      "RS": 7792,
      "Today": 7793,
      "Ġ×": 7794,
      "Ġthou": 7795,
      "amination": 7796,
      "uled": 7797,
      "ĠBab": 7798,
      "ĠRock": 7799,
      "ells": 7800,
      "asts": 7801,
      "pling": 7802,
      "Ġcontents": 7803,
      "Ġarray": 7804,
      "Ġouter": 7805,
      "Ġcoff": 7806,
      "ĠIslands": 7807,
      "Ġoccurring": 7808,
      "Ġresearcher": 7809,
      "Ġcalories": 7810,
      "Ġaddressed": 7811,
      "Ġhabitats": 7812,
      "Ġdanger": 7813,
      "Ġlungs": 7814,
      "Ġinnovation": 7815,
      "Ġevaluate": 7816,
      "Ġclothing": 7817,
      "People": 7818,
      "night": 7819,
      "yer": 7820,
      "Ġcats": 7821,
      "isd": 7822,
      "isk": 7823,
      "Ġmur": 7824,
      "ĠSir": 7825,
      "Ġwithd": 7826,
      "usiness": 7827,
      "ums": 7828,
      "ĠGre": 7829,
      "Ġplain": 7830,
      "Ġcompare": 7831,
      "chnology": 7832,
      "Ġforming": 7833,
      "Ġtreating": 7834,
      "Ġdemocracy": 7835,
      "Ġeleph": 7836,
      "Ġrepresentatives": 7837,
      "Ġcopies": 7838,
      "Ġthreats": 7839,
      "Ġheavily": 7840,
      "Ġexecutive": 7841,
      "senic": 7842,
      "sylvania": 7843,
      "07": 7844,
      "CA": 7845,
      "upt": 7846,
      "ye": 7847,
      "esides": 7848,
      "orters": 7849,
      "iture": 7850,
      "Ġmg": 7851,
      "Ġmac": 7852,
      "Ġhat": 7853,
      "ĠSolar": 7854,
      "aded": 7855,
      "Ġorgans": 7856,
      "ĠStation": 7857,
      "Ġroads": 7858,
      "Ġearliest": 7859,
      "Ġinsulin": 7860,
      "Ġconsidering": 7861,
      "ĠColl": 7862,
      "Ġviewed": 7863,
      "Ġbeneficial": 7864,
      "Ġfalling": 7865,
      "Ġsunlight": 7866,
      "Ġdebt": 7867,
      "ĠMoreover": 7868,
      "ĠTrade": 7869,
      "Ġfavorite": 7870,
      "Ġinformed": 7871,
      "Ġorientation": 7872,
      "bra": 7873,
      "pus": 7874,
      "Ã¤": 7875,
      "requ": 7876,
      "Ġcattle": 7877,
      "Ġpair": 7878,
      "Ġmira": 7879,
      "Ġdiver": 7880,
      "rooms": 7881,
      "Ġlibr": 7882,
      "sets": 7883,
      "ĠCare": 7884,
      "Ġprosec": 7885,
      "Ġconclus": 7886,
      "ĠHunting": 7887,
      "ĠFather": 7888,
      "asty": 7889,
      "Ġplenty": 7890,
      "obile": 7891,
      "Ġexamined": 7892,
      "Ġeffectiveness": 7893,
      "Ġcomplement": 7894,
      "ĠSpirit": 7895,
      "Ġexplicit": 7896,
      "Ġguidance": 7897,
      "Ġpromise": 7898,
      "Ġpreventing": 7899,
      "Ġdomain": 7900,
      "Ġtherapies": 7901,
      "Ġbrings": 7902,
      "Ġmitochond": 7903,
      "ĠIranian": 7904,
      "Ġdramatic": 7905,
      "Ġsplit": 7906,
      "Ġnarrative": 7907,
      "Once": 7908,
      "chen": 7909,
      "wan": 7910,
      "Ġpione": 7911,
      "Ġbath": 7912,
      "ĠResp": 7913,
      "ĠLess": 7914,
      "ogl": 7915,
      "ĠOregon": 7916,
      "action": 7917,
      "ube": 7918,
      "Ġrelax": 7919,
      "neys": 7920,
      "ĠAssembly": 7921,
      "Ġsciences": 7922,
      "ĠConvention": 7923,
      "Ġfaced": 7924,
      "Ġcutting": 7925,
      "Ġdebris": 7926,
      "Ġconcrete": 7927,
      "Ġsustainability": 7928,
      "Ġscreening": 7929,
      "Ġmammals": 7930,
      "ĠConnect": 7931,
      "Ġphotographs": 7932,
      "ĠNatchez": 7933,
      "ĠSecretary": 7934,
      "athered": 7935,
      "Ġcosm": 7936,
      "Ġdys": 7937,
      "Ġholes": 7938,
      "ĠTri": 7939,
      "Ġstores": 7940,
      "elesc": 7941,
      "ĠMove": 7942,
      "mental": 7943,
      "ĠHim": 7944,
      "ĠLo": 7945,
      "ogs": 7946,
      "Ġspoke": 7947,
      "ĠJr": 7948,
      "Ġcompound": 7949,
      "Ġclock": 7950,
      "eps": 7951,
      "Ġracial": 7952,
      "Ġentit": 7953,
      "Ġskill": 7954,
      "ĠZion": 7955,
      "ĠOnline": 7956,
      "Ġassociate": 7957,
      "Ġconsideration": 7958,
      "Ġrespectively": 7959,
      "Ġasthma": 7960,
      "Ġaudience": 7961,
      "Ġcontributed": 7962,
      "ĠSimilar": 7963,
      "ĠConfed": 7964,
      "Ġtelevision": 7965,
      "Ġcoordinate": 7966,
      "unteer": 7967,
      "Ġcrack": 7968,
      "Ġbeliefs": 7969,
      "Ġcategory": 7970,
      "Ġnutrients": 7971,
      "ĠPolicy": 7972,
      "EO": 7973,
      "foot": 7974,
      "pes": 7975,
      "Â®": 7976,
      "Ġtape": 7977,
      "arks": 7978,
      "Ġmine": 7979,
      "ceans": 7980,
      "ĠAT": 7981,
      "ĠDiff": 7982,
      "iva": 7983,
      "ĠNon": 7984,
      "Ġrational": 7985,
      "Ġshock": 7986,
      "allow": 7987,
      "Ġworst": 7988,
      "Ġworship": 7989,
      "anger": 7990,
      "Ġnewly": 7991,
      "Ġproviders": 7992,
      "Ġdesigns": 7993,
      "Ġtemporary": 7994,
      "oids": 7995,
      "ĠCentre": 7996,
      "Ġexisted": 7997,
      "Ġversions": 7998,
      "Ġsuspect": 7999,
      "ĠAngola": 8000,
      "copation": 8001,
      "Ġreproductive": 8002,
      "Ġapparently": 8003,
      "66": 8004,
      "aith": 8005,
      "sub": 8006,
      "Ġment": 8007,
      "Ġhabits": 8008,
      "ilation": 8009,
      "Ġnerve": 8010,
      "ĠTenn": 8011,
      "iments": 8012,
      "urning": 8013,
      "ĠMethod": 8014,
      "Ġanterior": 8015,
      "acent": 8016,
      "ĠField": 8017,
      "Ġcham": 8018,
      "Ġclient": 8019,
      "Ġevolved": 8020,
      "Ġinfant": 8021,
      "ritis": 8022,
      "Ġroots": 8023,
      "plete": 8024,
      "erty": 8025,
      "Ġvariation": 8026,
      "Ġdemands": 8027,
      "Ġperforming": 8028,
      "Ġradical": 8029,
      "ĠOrig": 8030,
      "Ġrepresentative": 8031,
      "Ġmoves": 8032,
      "ĠRepresent": 8033,
      "Ġexercises": 8034,
      "Ġimplemented": 8035,
      "Ġgradually": 8036,
      "Ġranging": 8037,
      "Ġrecommendations": 8038,
      "ĠCambod": 8039,
      "Ġpoetry": 8040,
      "otherapy": 8041,
      "ĠFacebook": 8042,
      "%.": 8043,
      "Che": 8044,
      "made": 8045,
      "rong": 8046,
      "reland": 8047,
      "child": 8048,
      "ĠClick": 8049,
      "Ġstick": 8050,
      "Ġheating": 8051,
      "ĠDig": 8052,
      "ogy": 8053,
      "Ġmaybe": 8054,
      "Ġagent": 8055,
      "Ġ34": 8056,
      "Ġtwelve": 8057,
      "Ġspecified": 8058,
      "Ġobesity": 8059,
      "Ġsculpt": 8060,
      "Ġsimult": 8061,
      "2013": 8062,
      "Ġobservation": 8063,
      "Ġfunded": 8064,
      "Ġsteel": 8065,
      "ĠNeu": 8066,
      "ĠDarwin": 8067,
      "Ġloved": 8068,
      "ao": 8069,
      "dad": 8070,
      "mes": 8071,
      "press": 8072,
      "you": 8073,
      "erly": 8074,
      "onym": 8075,
      "eness": 8076,
      "isdom": 8077,
      "Ġpond": 8078,
      "Ġbiodiversity": 8079,
      "ician": 8080,
      "asant": 8081,
      "lymp": 8082,
      "otion": 8083,
      "ĠSection": 8084,
      "ĠCA": 8085,
      "ĠFil": 8086,
      "Ġmining": 8087,
      "Ġserving": 8088,
      "Ġhardware": 8089,
      "Ġfalls": 8090,
      "Ġinitially": 8091,
      "Ġengineers": 8092,
      "ĠImm": 8093,
      "ĠSystems": 8094,
      "ĠMiller": 8095,
      "ĠJustice": 8096,
      "species": 8097,
      "ĠPennsylvania": 8098,
      "ĠEconomic": 8099,
      "ĠStandard": 8100,
      "Ġerrors": 8101,
      "Ġglucose": 8102,
      "Let": 8103,
      "iological": 8104,
      "power": 8105,
      "yr": 8106,
      "Ġid": 8107,
      "eries": 8108,
      "Ġbull": 8109,
      "anz": 8110,
      "icular": 8111,
      "Ġtooth": 8112,
      "Ġhole": 8113,
      "amins": 8114,
      "istant": 8115,
      "this": 8116,
      "Ġsuit": 8117,
      "Ġvac": 8118,
      "uality": 8119,
      "Ġclust": 8120,
      "Ġunem": 8121,
      "Ġinferior": 8122,
      "ailed": 8123,
      "Ġanywhere": 8124,
      "Ġpron": 8125,
      "Ġevening": 8126,
      "Ġmeasuring": 8127,
      "ĠYoung": 8128,
      "ĠLeon": 8129,
      "Ġconcerning": 8130,
      "Ġcrimes": 8131,
      "Ġimagine": 8132,
      "Ġbeauty": 8133,
      "Ġtube": 8134,
      "ĠFinally": 8135,
      "ĠDaniel": 8136,
      "Ġperceived": 8137,
      "DS": 8138,
      "fe": 8139,
      "onal": 8140,
      "aton": 8141,
      "oric": 8142,
      "Ġmeth": 8143,
      "Ġreaching": 8144,
      "imic": 8145,
      "otal": 8146,
      "Ġforg": 8147,
      "iger": 8148,
      "ĠIreland": 8149,
      "iration": 8150,
      "Ġstake": 8151,
      "Ġasc": 8152,
      "ĠMid": 8153,
      "about": 8154,
      "quar": 8155,
      "ĠFigure": 8156,
      "ĠGet": 8157,
      "ghan": 8158,
      "Ġraw": 8159,
      "ieth": 8160,
      "Ġ600": 8161,
      "ĠSpain": 8162,
      "Ġposterior": 8163,
      "Ġstructural": 8164,
      "Ġmigration": 8165,
      "Ġbranches": 8166,
      "ĠOpen": 8167,
      "Ġhorizont": 8168,
      "usalem": 8169,
      "ĠPortuguese": 8170,
      "92": 8171,
      "Cons": 8172,
      "Ġcash": 8173,
      "ounce": 8174,
      "Ġthroat": 8175,
      "ĠTom": 8176,
      "oline": 8177,
      "Ġgases": 8178,
      "idal": 8179,
      "otype": 8180,
      "ĠSS": 8181,
      "aying": 8182,
      "ĠMach": 8183,
      "ĠHand": 8184,
      "Ġhence": 8185,
      "estyle": 8186,
      "rix": 8187,
      "Ġspr": 8188,
      "agan": 8189,
      "Ġmeal": 8190,
      "Ġcommands": 8191
    },
    "merges": [
      [
        "Ġ",
        "t"
      ],
      [
        "Ġ",
        "a"
      ],
      [
        "h",
        "e"
      ],
      [
        "i",
        "n"
      ],
      [
        "r",
        "e"
      ],
      [
        "Ġt",
        "he"
      ],
      [
        "Ġ",
        "o"
      ],
      [
        "e",
        "r"
      ],
      [
        "o",
        "n"
      ],
      [
        "a",
        "t"
      ],
      [
        "Ġ",
        "s"
      ],
      [
        "e",
        "n"
      ],
      [
        "Ġ",
        "c"
      ],
      [
        "Ġ",
        "w"
      ],
      [
        "e",
        "s"
      ],
      [
        "i",
        "s"
      ],
      [
        "n",
        "d"
      ],
      [
        "o",
        "r"
      ],
      [
        "i",
        "t"
      ],
      [
        "Ġ",
        "p"
      ],
      [
        "e",
        "d"
      ],
      [
        "a",
        "l"
      ],
      [
        "Ġo",
        "f"
      ],
      [
        "Ġ",
        "b"
      ],
      [
        "Ġ",
        "f"
      ],
      [
        "a",
        "n"
      ],
      [
        "Ġ",
        "in"
      ],
      [
        "a",
        "r"
      ],
      [
        "in",
        "g"
      ],
      [
        "Ġ",
        "m"
      ],
      [
        "o",
        "u"
      ],
      [
        "i",
        "c"
      ],
      [
        "Ġa",
        "nd"
      ],
      [
        "Ġt",
        "o"
      ],
      [
        "i",
        "on"
      ],
      [
        "Ġ",
        "d"
      ],
      [
        "r",
        "o"
      ],
      [
        "l",
        "e"
      ],
      [
        "a",
        "s"
      ],
      [
        "Ġ",
        "h"
      ],
      [
        "en",
        "t"
      ],
      [
        "Ġt",
        "h"
      ],
      [
        "c",
        "t"
      ],
      [
        "i",
        "l"
      ],
      [
        "Ġ",
        "e"
      ],
      [
        "Ġ",
        "re"
      ],
      [
        "o",
        "m"
      ],
      [
        "Ġ",
        "n"
      ],
      [
        "Ġ",
        "l"
      ],
      [
        "s",
        "t"
      ],
      [
        "v",
        "e"
      ],
      [
        "l",
        "y"
      ],
      [
        "Ġb",
        "e"
      ],
      [
        "Ġ",
        "T"
      ],
      [
        "Ġ",
        "is"
      ],
      [
        "o",
        "l"
      ],
      [
        "at",
        "ion"
      ],
      [
        "s",
        "e"
      ],
      [
        "Ġ",
        "g"
      ],
      [
        "i",
        "d"
      ],
      [
        "i",
        "m"
      ],
      [
        "c",
        "e"
      ],
      [
        "Ġ",
        "A"
      ],
      [
        "u",
        "t"
      ],
      [
        "e",
        "t"
      ],
      [
        "o",
        "t"
      ],
      [
        "u",
        "r"
      ],
      [
        "r",
        "a"
      ],
      [
        "c",
        "h"
      ],
      [
        "Ġ",
        "S"
      ],
      [
        "Ġf",
        "or"
      ],
      [
        "o",
        "w"
      ],
      [
        "i",
        "g"
      ],
      [
        "Ġ",
        "C"
      ],
      [
        "â",
        "Ģ"
      ],
      [
        "Ġth",
        "at"
      ],
      [
        "Ġo",
        "n"
      ],
      [
        "Ġ",
        "u"
      ],
      [
        "v",
        "er"
      ],
      [
        "Ġ",
        "I"
      ],
      [
        "i",
        "r"
      ],
      [
        "Ġs",
        "t"
      ],
      [
        "a",
        "m"
      ],
      [
        "u",
        "l"
      ],
      [
        "a",
        "y"
      ],
      [
        "a",
        "d"
      ],
      [
        "e",
        "l"
      ],
      [
        "Ġa",
        "s"
      ],
      [
        "it",
        "h"
      ],
      [
        "he",
        "r"
      ],
      [
        "Ġp",
        "ro"
      ],
      [
        "Ġc",
        "on"
      ],
      [
        "Ġ",
        "M"
      ],
      [
        "Ġ",
        "y"
      ],
      [
        "Ġ",
        "1"
      ],
      [
        "Ġa",
        "n"
      ],
      [
        "Ġw",
        "ith"
      ],
      [
        "Ġ",
        "("
      ],
      [
        "Ġw",
        "h"
      ],
      [
        "Ġo",
        "r"
      ],
      [
        "Ġa",
        "re"
      ],
      [
        "t",
        "er"
      ],
      [
        "i",
        "f"
      ],
      [
        "Ġ",
        "it"
      ],
      [
        "Ġ",
        "P"
      ],
      [
        "ĠT",
        "he"
      ],
      [
        "Ġa",
        "l"
      ],
      [
        "m",
        "ent"
      ],
      [
        "o",
        "d"
      ],
      [
        "is",
        "t"
      ],
      [
        "t",
        "h"
      ],
      [
        "er",
        "s"
      ],
      [
        "g",
        "e"
      ],
      [
        "o",
        "p"
      ],
      [
        "at",
        "e"
      ],
      [
        "Ġd",
        "e"
      ],
      [
        "Ġ",
        "B"
      ],
      [
        "i",
        "es"
      ],
      [
        "il",
        "l"
      ],
      [
        "e",
        "re"
      ],
      [
        "u",
        "s"
      ],
      [
        "u",
        "m"
      ],
      [
        "a",
        "b"
      ],
      [
        "Ġe",
        "x"
      ],
      [
        "Ġ",
        "H"
      ],
      [
        "re",
        "s"
      ],
      [
        "Ġc",
        "om"
      ],
      [
        "Ġb",
        "y"
      ],
      [
        "Ġ",
        "he"
      ],
      [
        "e",
        "ct"
      ],
      [
        "it",
        "y"
      ],
      [
        "es",
        "t"
      ],
      [
        "es",
        "s"
      ],
      [
        "ro",
        "m"
      ],
      [
        "o",
        "re"
      ],
      [
        "o",
        "s"
      ],
      [
        "r",
        "i"
      ],
      [
        "Ġy",
        "ou"
      ],
      [
        "l",
        "d"
      ],
      [
        "Ġs",
        "u"
      ],
      [
        "e",
        "m"
      ],
      [
        "Ġh",
        "a"
      ],
      [
        "Ġa",
        "t"
      ],
      [
        "Ġw",
        "as"
      ],
      [
        "a",
        "c"
      ],
      [
        "Ġ",
        "W"
      ],
      [
        "i",
        "ve"
      ],
      [
        "n",
        "t"
      ],
      [
        "Ġ",
        "v"
      ],
      [
        "Ġ",
        "D"
      ],
      [
        "q",
        "u"
      ],
      [
        "p",
        "p"
      ],
      [
        "a",
        "in"
      ],
      [
        "Ġ",
        "R"
      ],
      [
        "Ġ",
        "E"
      ],
      [
        "ig",
        "h"
      ],
      [
        "an",
        "t"
      ],
      [
        "u",
        "d"
      ],
      [
        "Ġf",
        "rom"
      ],
      [
        "k",
        "e"
      ],
      [
        "Ġ",
        "F"
      ],
      [
        "a",
        "nd"
      ],
      [
        "Ġ",
        "2"
      ],
      [
        "o",
        "c"
      ],
      [
        "i",
        "v"
      ],
      [
        "Ġ",
        "N"
      ],
      [
        "Ġs",
        "e"
      ],
      [
        "Ġn",
        "e"
      ],
      [
        "or",
        "t"
      ],
      [
        "Ġc",
        "h"
      ],
      [
        "Ġ",
        "r"
      ],
      [
        "u",
        "n"
      ],
      [
        "Ġ",
        "G"
      ],
      [
        "u",
        "re"
      ],
      [
        "Ġn",
        "ot"
      ],
      [
        "0",
        "0"
      ],
      [
        "ic",
        "al"
      ],
      [
        "ar",
        "t"
      ],
      [
        "Ġ",
        "L"
      ],
      [
        "i",
        "al"
      ],
      [
        "Ġc",
        "an"
      ],
      [
        "o",
        "g"
      ],
      [
        "Ġha",
        "ve"
      ],
      [
        "Ġ",
        "le"
      ],
      [
        "Ġs",
        "p"
      ],
      [
        "Ġs",
        "h"
      ],
      [
        "Ġ",
        "en"
      ],
      [
        "igh",
        "t"
      ],
      [
        "ic",
        "h"
      ],
      [
        "al",
        "l"
      ],
      [
        "p",
        "t"
      ],
      [
        "T",
        "he"
      ],
      [
        "âĢ",
        "Ļ"
      ],
      [
        "Ġth",
        "is"
      ],
      [
        "'",
        "s"
      ],
      [
        "r",
        "ou"
      ],
      [
        "Ġa",
        "b"
      ],
      [
        "ou",
        "ld"
      ],
      [
        "t",
        "her"
      ],
      [
        "g",
        "h"
      ],
      [
        "o",
        "st"
      ],
      [
        "ou",
        "r"
      ],
      [
        "ion",
        "s"
      ],
      [
        "Ġw",
        "or"
      ],
      [
        "at",
        "ed"
      ],
      [
        "ar",
        "d"
      ],
      [
        "u",
        "st"
      ],
      [
        "e",
        "ar"
      ],
      [
        "om",
        "e"
      ],
      [
        "Ġ",
        "J"
      ],
      [
        "in",
        "e"
      ],
      [
        "i",
        "a"
      ],
      [
        "el",
        "l"
      ],
      [
        "Ġ",
        "O"
      ],
      [
        "ou",
        "t"
      ],
      [
        "p",
        "er"
      ],
      [
        "Ġ",
        "âĢ"
      ],
      [
        "Ġ",
        "U"
      ],
      [
        "Ġw",
        "e"
      ],
      [
        "an",
        "s"
      ],
      [
        "as",
        "t"
      ],
      [
        "Ġu",
        "s"
      ],
      [
        "f",
        "f"
      ],
      [
        "Ġthe",
        "ir"
      ],
      [
        "Ġin",
        "t"
      ],
      [
        "e",
        "c"
      ],
      [
        "a",
        "ct"
      ],
      [
        "Ġ",
        "im"
      ],
      [
        "Ġwh",
        "ich"
      ],
      [
        "p",
        "l"
      ],
      [
        "ĠI",
        "n"
      ],
      [
        "Ġp",
        "l"
      ],
      [
        "d",
        "u"
      ],
      [
        "Ġ",
        "\""
      ],
      [
        "id",
        "e"
      ],
      [
        "a",
        "g"
      ],
      [
        "e",
        "w"
      ],
      [
        "Ġ",
        "k"
      ],
      [
        "ou",
        "s"
      ],
      [
        "a",
        "ge"
      ],
      [
        "a",
        "re"
      ],
      [
        "Ġcon",
        "t"
      ],
      [
        "i",
        "z"
      ],
      [
        "a",
        "k"
      ],
      [
        "Ġd",
        "is"
      ],
      [
        "i",
        "b"
      ],
      [
        "Ġal",
        "l"
      ],
      [
        "Ġw",
        "he"
      ],
      [
        "Ġ1",
        "9"
      ],
      [
        "en",
        "d"
      ],
      [
        "Ġa",
        "d"
      ],
      [
        "c",
        "c"
      ],
      [
        "Ġthe",
        "y"
      ],
      [
        "ar",
        "y"
      ],
      [
        "on",
        "g"
      ],
      [
        "a",
        "p"
      ],
      [
        "r",
        "u"
      ],
      [
        "or",
        "m"
      ],
      [
        "ation",
        "s"
      ],
      [
        "Ġw",
        "ere"
      ],
      [
        "ve",
        "l"
      ],
      [
        "at",
        "er"
      ],
      [
        "Ġm",
        "ore"
      ],
      [
        "Ġh",
        "as"
      ],
      [
        "Ġin",
        "c"
      ],
      [
        "ul",
        "t"
      ],
      [
        "Ġcom",
        "p"
      ],
      [
        "o",
        "od"
      ],
      [
        "i",
        "p"
      ],
      [
        "Ġre",
        "s"
      ],
      [
        "Ġw",
        "ill"
      ],
      [
        "i",
        "re"
      ],
      [
        "Ġo",
        "ther"
      ],
      [
        "Ġb",
        "ut"
      ],
      [
        "Ġd",
        "o"
      ],
      [
        "Ġp",
        "er"
      ],
      [
        "en",
        "ce"
      ],
      [
        "u",
        "al"
      ],
      [
        "Ġc",
        "l"
      ],
      [
        "s",
        "o"
      ],
      [
        "r",
        "y"
      ],
      [
        "il",
        "d"
      ],
      [
        "ĠT",
        "h"
      ],
      [
        "e",
        "p"
      ],
      [
        "Ġon",
        "e"
      ],
      [
        "Ġm",
        "an"
      ],
      [
        "k",
        "s"
      ],
      [
        "ab",
        "le"
      ],
      [
        "o",
        "se"
      ],
      [
        "Ġa",
        "r"
      ],
      [
        "ig",
        "n"
      ],
      [
        "an",
        "ce"
      ],
      [
        "in",
        "d"
      ],
      [
        "Ġ",
        "j"
      ],
      [
        "Ġm",
        "e"
      ],
      [
        "âĢ",
        "Ŀ"
      ],
      [
        "a",
        "ce"
      ],
      [
        "res",
        "s"
      ],
      [
        "as",
        "s"
      ],
      [
        "Ġh",
        "is"
      ],
      [
        "ic",
        "e"
      ],
      [
        "b",
        "er"
      ],
      [
        "ent",
        "s"
      ],
      [
        "or",
        "d"
      ],
      [
        "a",
        "ch"
      ],
      [
        "ct",
        "ion"
      ],
      [
        "Ġu",
        "n"
      ],
      [
        "am",
        "e"
      ],
      [
        "re",
        "at"
      ],
      [
        ")",
        "."
      ],
      [
        "as",
        "e"
      ],
      [
        "Ġp",
        "art"
      ],
      [
        "ĠS",
        "t"
      ],
      [
        "a",
        "v"
      ],
      [
        "or",
        "y"
      ],
      [
        "ou",
        "nt"
      ],
      [
        "Ġa",
        "pp"
      ],
      [
        "Ġt",
        "e"
      ],
      [
        "Ġal",
        "so"
      ],
      [
        "Ġwh",
        "o"
      ],
      [
        "Ġ",
        "K"
      ],
      [
        "a",
        "u"
      ],
      [
        "Ġe",
        "v"
      ],
      [
        "Ġcom",
        "m"
      ],
      [
        "Ġyou",
        "r"
      ],
      [
        "ol",
        "og"
      ],
      [
        "u",
        "b"
      ],
      [
        "a",
        "ke"
      ],
      [
        "is",
        "h"
      ],
      [
        "Ġim",
        "p"
      ],
      [
        "it",
        "ion"
      ],
      [
        "Ġp",
        "re"
      ],
      [
        "Ġo",
        "ut"
      ],
      [
        "Ġs",
        "o"
      ],
      [
        "c",
        "i"
      ],
      [
        "ac",
        "k"
      ],
      [
        "im",
        "e"
      ],
      [
        "Ġab",
        "out"
      ],
      [
        "en",
        "s"
      ],
      [
        "Ġin",
        "f"
      ],
      [
        "on",
        "e"
      ],
      [
        "o",
        "k"
      ],
      [
        "it",
        "e"
      ],
      [
        "ver",
        "y"
      ],
      [
        "ou",
        "nd"
      ],
      [
        "or",
        "s"
      ],
      [
        "Ġst",
        "ud"
      ],
      [
        "re",
        "e"
      ],
      [
        "i",
        "an"
      ],
      [
        "m",
        "er"
      ],
      [
        "c",
        "es"
      ],
      [
        "Ġy",
        "ear"
      ],
      [
        "Ġs",
        "y"
      ],
      [
        "ĠâĢ",
        "ľ"
      ],
      [
        "ĠC",
        "h"
      ],
      [
        "Ġm",
        "ay"
      ],
      [
        "Ġth",
        "an"
      ],
      [
        "Ġu",
        "p"
      ],
      [
        "Ġ",
        "V"
      ],
      [
        "u",
        "e"
      ],
      [
        "Ġp",
        "e"
      ],
      [
        "Ġbe",
        "en"
      ],
      [
        "i",
        "le"
      ],
      [
        "at",
        "es"
      ],
      [
        "Ġit",
        "s"
      ],
      [
        "an",
        "g"
      ],
      [
        "r",
        "ic"
      ],
      [
        "Ġre",
        "c"
      ],
      [
        "Ġthe",
        "m"
      ],
      [
        "Ġh",
        "ad"
      ],
      [
        "ow",
        "n"
      ],
      [
        "Ġs",
        "ome"
      ],
      [
        "Ġa",
        "g"
      ],
      [
        "i",
        "e"
      ],
      [
        "Ġbe",
        "c"
      ],
      [
        "ver",
        "s"
      ],
      [
        "Ġg",
        "o"
      ],
      [
        "l",
        "ow"
      ],
      [
        "a",
        "il"
      ],
      [
        "Ġ",
        "qu"
      ],
      [
        "Ġthe",
        "re"
      ],
      [
        "ĠI",
        "t"
      ],
      [
        "nd",
        "er"
      ],
      [
        "ay",
        "s"
      ],
      [
        "on",
        "s"
      ],
      [
        "i",
        "ke"
      ],
      [
        "p",
        "h"
      ],
      [
        "ou",
        "gh"
      ],
      [
        "Ġint",
        "o"
      ],
      [
        "er",
        "v"
      ],
      [
        "ter",
        "n"
      ],
      [
        "r",
        "it"
      ],
      [
        "Ġt",
        "ra"
      ],
      [
        "on",
        "d"
      ],
      [
        "Ġ",
        "3"
      ],
      [
        "op",
        "le"
      ],
      [
        "Ġt",
        "w"
      ],
      [
        "Ġk",
        "n"
      ],
      [
        "Ġ2",
        "00"
      ],
      [
        "if",
        "f"
      ],
      [
        "t",
        "e"
      ],
      [
        "rou",
        "gh"
      ],
      [
        "l",
        "ic"
      ],
      [
        "m",
        "s"
      ],
      [
        "ing",
        "s"
      ],
      [
        "re",
        "n"
      ],
      [
        "ation",
        "al"
      ],
      [
        "ir",
        "st"
      ],
      [
        "l",
        "ud"
      ],
      [
        "Ġ",
        "ra"
      ],
      [
        "Ġwhe",
        "n"
      ],
      [
        "Ġs",
        "a"
      ],
      [
        "Ġre",
        "p"
      ],
      [
        "Ġne",
        "w"
      ],
      [
        "Ġw",
        "ould"
      ],
      [
        "Ġthe",
        "se"
      ],
      [
        "j",
        "ect"
      ],
      [
        "le",
        "ct"
      ],
      [
        "o",
        "ve"
      ],
      [
        "Ġo",
        "ver"
      ],
      [
        "Ġg",
        "en"
      ],
      [
        "Ġin",
        "d"
      ],
      [
        "o",
        "b"
      ],
      [
        "Ġwor",
        "k"
      ],
      [
        "in",
        "t"
      ],
      [
        "al",
        "ly"
      ],
      [
        "Ġt",
        "ime"
      ],
      [
        "Ġcon",
        "s"
      ],
      [
        "Ġc",
        "ol"
      ],
      [
        "Ġd",
        "es"
      ],
      [
        "Ġ",
        "-"
      ],
      [
        "Ġa",
        "ct"
      ],
      [
        "Ġb",
        "l"
      ],
      [
        "if",
        "ic"
      ],
      [
        "he",
        "d"
      ],
      [
        "Ġu",
        "nder"
      ],
      [
        "l",
        "l"
      ],
      [
        "Ġm",
        "ost"
      ],
      [
        "Ġ",
        "ro"
      ],
      [
        "w",
        "n"
      ],
      [
        "ment",
        "s"
      ],
      [
        "st",
        "em"
      ],
      [
        "y",
        "s"
      ],
      [
        "it",
        "ies"
      ],
      [
        "ĠTh",
        "is"
      ],
      [
        "vel",
        "op"
      ],
      [
        "re",
        "d"
      ],
      [
        "Ġu",
        "se"
      ],
      [
        "Ġbe",
        "t"
      ],
      [
        "w",
        "e"
      ],
      [
        "Ġpe",
        "ople"
      ],
      [
        "ĠU",
        "n"
      ],
      [
        "Ġre",
        "l"
      ],
      [
        "au",
        "se"
      ],
      [
        ")",
        ","
      ],
      [
        "Ġsu",
        "ch"
      ],
      [
        "Ġa",
        "cc"
      ],
      [
        "o",
        "ok"
      ],
      [
        "Ġ2",
        "0"
      ],
      [
        "Ġ",
        "Y"
      ],
      [
        "is",
        "s"
      ],
      [
        "Ġh",
        "ow"
      ],
      [
        "Ġd",
        "iff"
      ],
      [
        "Ġn",
        "o"
      ],
      [
        "at",
        "ive"
      ],
      [
        "Ġpro",
        "v"
      ],
      [
        "Ġ",
        "if"
      ],
      [
        "Ġf",
        "irst"
      ],
      [
        "Ġan",
        "y"
      ],
      [
        "Ġinc",
        "lud"
      ],
      [
        "Ġof",
        "f"
      ],
      [
        "Ġt",
        "r"
      ],
      [
        "c",
        "ed"
      ],
      [
        "l",
        "es"
      ],
      [
        "n",
        "ing"
      ],
      [
        "o",
        "v"
      ],
      [
        "Ġon",
        "ly"
      ],
      [
        "Ġtw",
        "o"
      ],
      [
        "p",
        "le"
      ],
      [
        "Ġsp",
        "ec"
      ],
      [
        "Ġe",
        "ff"
      ],
      [
        "i",
        "ous"
      ],
      [
        "Ġp",
        "h"
      ],
      [
        "Ġch",
        "ild"
      ],
      [
        "ul",
        "ar"
      ],
      [
        "Ġl",
        "ike"
      ],
      [
        "er",
        "m"
      ],
      [
        "Ġa",
        "m"
      ],
      [
        "ri",
        "b"
      ],
      [
        "Ġo",
        "ur"
      ],
      [
        "Ġus",
        "ed"
      ],
      [
        "i",
        "ed"
      ],
      [
        "Ġp",
        "o"
      ],
      [
        "t",
        "s"
      ],
      [
        "al",
        "th"
      ],
      [
        "Ġre",
        "g"
      ],
      [
        "f",
        "ter"
      ],
      [
        "Ġde",
        "velop"
      ],
      [
        "os",
        "s"
      ],
      [
        "Ġpro",
        "du"
      ],
      [
        "Ġex",
        "p"
      ],
      [
        "Ġman",
        "y"
      ],
      [
        "ĠH",
        "e"
      ],
      [
        "Ġs",
        "ur"
      ],
      [
        "Ġth",
        "rough"
      ],
      [
        "u",
        "c"
      ],
      [
        "Ġo",
        "b"
      ],
      [
        "Ġne",
        "ed"
      ],
      [
        "c",
        "ess"
      ],
      [
        "Ġat",
        "t"
      ],
      [
        "o",
        "ol"
      ],
      [
        "ur",
        "ing"
      ],
      [
        "Ġe",
        "m"
      ],
      [
        "Ġsy",
        "stem"
      ],
      [
        "at",
        "ing"
      ],
      [
        "ic",
        "s"
      ],
      [
        "Ġa",
        "c"
      ],
      [
        "a",
        "w"
      ],
      [
        "ar",
        "ch"
      ],
      [
        "Ġwh",
        "at"
      ],
      [
        "Ġs",
        "c"
      ],
      [
        "at",
        "h"
      ],
      [
        "i",
        "et"
      ],
      [
        "ow",
        "er"
      ],
      [
        "al",
        "s"
      ],
      [
        "y",
        "p"
      ],
      [
        "he",
        "n"
      ],
      [
        "rou",
        "nd"
      ],
      [
        "Ġyear",
        "s"
      ],
      [
        "is",
        "e"
      ],
      [
        "ro",
        "p"
      ],
      [
        "n",
        "e"
      ],
      [
        "er",
        "t"
      ],
      [
        "Ġ",
        "4"
      ],
[...]
